<unk>	0
<s>	0
</s>	0
e	-3.20811
t	-3.62604
i	-3.66888
▁	-3.68285
s	-3.70048
▁dr	-4.32079
er	-4.34645
▁d	-4.34872
r	-4.35927
a	-4.5209
n	-4.53867
g	-4.5852
▁isch	-4.63796
d	-4.71352
▁s	-4.74163
▁de	-4.77935
l	-4.79586
▁vo	-4.82075
m	-4.82406
ä	-4.89787
▁und	-4.94606
u	-4.94707
▁e	-5.01541
è	-5.07297
b	-5.10497
f	-5.14724
▁g	-5.19611
ig	-5.21813
▁z	-5.22184
▁im	-5.23317
o	-5.23425
ch	-5.2551
▁b	-5.2666
▁in	-5.26806
▁het	-5.29062
h	-5.34183
z	-5.40554
▁si	-5.40626
y	-5.42677
▁un	-5.44792
▁wo	-5.45037
in	-5.47439
p	-5.47672
▁er	-5.53123
▁f	-5.53496
k	-5.55228
re	-5.56186
li	-5.58249
sch	-5.61325
▁a	-5.6195
scht	-5.62882
▁em	-5.65626
le	-5.65886
al	-5.67827
▁ver	-5.68179
▁mit	-5.69767
ü	-5.72548
en	-5.74619
st	-5.74867
▁be	-5.75963
▁vom	-5.7627
ter	-5.76429
ra	-5.77611
be	-5.824
▁uf	-5.83194
▁k	-5.83545
it	-5.8411
▁19	-5.85014
▁au	-5.86155
▁vu	-5.87162
on	-5.88365
ne	-5.88441
el	-5.89783
0	-5.91289
ar	-5.92365
▁sch	-5.94508
la	-5.94584
isch	-5.94639
nd	-5.96099
te	-5.96402
ri	-5.96999
de	-5.99808
ö	-6.02112
ge	-6.03597
is	-6.04843
▁i	-6.06101
or	-6.11976
il	-6.12581
▁p	-6.14592
1	-6.16069
▁am	-6.16098
▁die	-6.16358
▁bi	-6.18089
▁me	-6.18487
▁us	-6.22945
c	-6.23447
us	-6.24043
an	-6.25518
▁ch	-6.25624
oo	-6.25633
ische	-6.2599
ur	-6.26212
9	-6.28313
et	-6.28617
▁zum	-6.29098
▁ma	-6.30205
4	-6.30746
▁o	-6.3095
▁re	-6.31803
w	-6.32669
▁st	-6.33418
▁sin	-6.33517
▁an	-6.34174
5	-6.34994
ro	-6.35081
7	-6.3592
8	-6.35996
3	-6.37425
hr	-6.37471
▁en	-6.38331
lich	-6.38718
ck	-6.39012
2	-6.39122
um	-6.39547
▁di	-6.40647
cht	-6.41757
6	-6.43522
id	-6.44174
▁gsi	-6.44885
▁sich	-6.46248
▁2	-6.47041
ige	-6.47597
▁worde	-6.4791
at	-6.48668
▁m	-6.49051
▁as	-6.49077
na	-6.49474
▁no	-6.49555
me	-6.50788
kt	-6.51028
▁h	-6.51551
▁bis	-6.51992
▁vor	-6.52384
ma	-6.52429
ni	-6.53675
wi	-6.54996
lig	-6.55149
tz	-6.55979
ru	-6.5671
är	-6.57419
▁so	-6.57667
zi	-6.58546
▁dè	-6.58764
lo	-6.60667
ber	-6.61509
▁wi	-6.61726
der	-6.62251
di	-6.62519
▁vum	-6.63606
▁ab	-6.63923
che	-6.66263
▁für	-6.66867
lä	-6.67158
em	-6.6772
ll	-6.69745
▁we	-6.71034
▁3	-6.71663
ste	-6.72906
▁18	-6.73147
iert	-6.75764
▁v	-6.76347
▁li	-6.7668
▁20	-6.77125
à	-6.77605
▁zu	-6.77614
da	-6.79213
▁n	-6.79362
▁w	-6.82797
▁der	-6.83018
ff	-6.84197
▁sp	-6.84232
▁ba	-6.84306
ung	-6.85069
▁ha	-6.85951
▁le	-6.87623
v	-6.88131
no	-6.88742
▁he	-6.88931
ag	-6.89575
▁aber	-6.89651
x	-6.89792
▁um	-6.89937
und	-6.90771
▁wä	-6.91625
▁t	-6.91711
wä	-6.92718
▁ge	-6.92924
ner	-6.93479
▁es	-6.93515
ha	-6.93791
▁ka	-6.93825
au	-6.93942
▁se	-6.9409
▁als	-6.94094
uf	-6.94359
▁fr	-6.95105
▁mä	-6.95355
we	-6.96013
un	-6.97071
sse	-6.97126
▁wa	-6.97471
▁wu	-6.97578
▁da	-6.97887
burg	-6.98163
▁4	-6.98808
ol	-6.98888
▁ii	-6.98945
▁über	-6.99084
ler	-6.99089
bi	-6.99157
▁ro	-6.99899
and	-6.99976
▁noch	-7.00069
ed	-7.00097
▁ä	-7.00907
▁ho	-7.012
▁oder	-7.01602
▁“	-7.01746
mm	-7.02878
▁„	-7.02951
hl	-7.03716
▁johr	-7.04546
ach	-7.04815
rk	-7.04977
ich	-7.05211
ti	-7.05293
ù	-7.05499
ß	-7.05737
é	-7.05811
▁do	-7.0647
▁ar	-7.08314
ör	-7.08387
ke	-7.08611
▁wore	-7.08999
nder	-7.09126
▁la	-7.09284
schte	-7.09522
▁zw	-7.09858
j	-7.09967
▁c	-7.1004
üü	-7.1063
▁ond	-7.10779
ì	-7.12005
land	-7.1215
gg	-7.12199
ze	-7.1244
am	-7.13576
hn	-7.13733
ng	-7.13784
ik	-7.1398
▁wie	-7.14025
▁wird	-7.14354
ver	-7.14625
wa	-7.14766
▁mu	-7.14845
br	-7.14983
▁mo	-7.15784
▁1	-7.16272
nig	-7.16593
▁land	-7.17818
▁aa	-7.18119
▁l	-7.182
schaft	-7.18353
tt	-7.18506
▁5	-7.18609
nz	-7.18625
ischi	-7.18927
▁dä	-7.18969
▁ju	-7.19202
nn	-7.20472
ul	-7.20658
▁gsch	-7.20854
ka	-7.21416
▁zue	-7.21624
ell	-7.2333
tig	-7.23915
▁hät	-7.24436
ga	-7.25389
öö	-7.25905
▁ne	-7.26337
▁hän	-7.26408
tsch	-7.26461
ür	-7.26906
ad	-7.2768
▁stadt	-7.27879
lle	-7.28249
▁unter	-7.28398
ta	-7.28956
▁6	-7.29704
og	-7.30001
▁ö	-7.30168
lige	-7.30652
▁ko	-7.30855
▁ent	-7.31068
nk	-7.31317
▁sy	-7.31415
fe	-7.31796
th	-7.31851
ft	-7.31963
end	-7.32419
ent	-7.33204
sp	-7.34338
▁lo	-7.3445
▁u	-7.34827
▁ghert	-7.34966
sta	-7.35005
▁bo	-7.35112
▁sind	-7.35752
▁cha	-7.3582
▁7	-7.36
▁ru	-7.36159
▁all	-7.36271
chi	-7.36284
iv	-7.36296
vo	-7.37133
ant	-7.37315
▁8	-7.37782
▁ra	-7.37839
berg	-7.38267
änd	-7.38334
ine	-7.38637
mme	-7.3874
äng	-7.39481
dr	-7.39625
▁uff	-7.39714
▁dur	-7.39769
schi	-7.39954
▁uus	-7.3999
▁vi	-7.4022
▁hi	-7.40445
▁kon	-7.40508
ide	-7.40914
▁sa	-7.41512
▁under	-7.41529
▁gra	-7.41585
▁9	-7.41722
▁na	-7.4179
ô	-7.41812
ist	-7.42052
ns	-7.43081
ess	-7.43681
lu	-7.43947
ab	-7.44951
om	-7.44959
ene	-7.45046
ut	-7.45096
▁–	-7.45695
▁17	-7.45871
os	-7.46245
ba	-7.4661
form	-7.47095
▁pro	-7.47142
riich	-7.47273
▁al	-7.47507
ld	-7.47549
▁lu	-7.47741
▁pa	-7.48327
üe	-7.48385
anz	-7.48515
▁je	-7.48593
gi	-7.49087
mo	-7.49914
icht	-7.50122
▁j	-7.50715
▁nord	-7.50721
ing	-7.50746
▁häi	-7.51439
mp	-7.51949
tion	-7.53003
▁region	-7.53323
▁su	-7.53748
rü	-7.53771
▁zem	-7.54414
vi	-7.54558
▁15	-7.54829
▁12	-7.54874
▁gl	-7.54874
▁kanton	-7.55039
▁wer	-7.55718
ass	-7.56274
op	-7.56897
ger	-7.57449
▁ìsch	-7.57921
stand	-7.58264
ang	-7.58441
ation	-7.5874
im	-7.58885
▁gha	-7.58984
sche	-7.59068
tte	-7.59396
▁go	-7.59979
▁gw	-7.60283
▁co	-7.6048
▁fa	-7.60857
▁ere	-7.60882
do	-7.61592
èr	-7.61939
▁gsii	-7.62589
▁schw	-7.62672
▁vun	-7.62726
nde	-7.62989
▁nit	-7.63298
ko	-7.63409
zu	-7.63725
▁fir	-7.63844
▁aag	-7.64414
▁denn	-7.6489
bach	-7.6521
ph	-7.65513
▁anne	-7.66358
äll	-7.66703
setz	-7.67576
▁ober	-7.68116
▁14	-7.68149
▁ort	-7.68279
lf	-7.68786
▁13	-7.68865
▁gmeind	-7.68895
▁gh	-7.68898
du	-7.68931
ffe	-7.69039
ve	-7.69103
▁alt	-7.70005
▁ass	-7.70072
▁vil	-7.70766
▁va	-7.71289
▁scho	-7.71772
ho	-7.71952
yy	-7.72479
▁mar	-7.72758
folg	-7.72941
tra	-7.73037
▁mer	-7.73224
pp	-7.73284
▁mi	-7.73291
’	-7.73352
▁hüt	-7.73513
nnt	-7.73815
▁dütsch	-7.73835
gang	-7.73852
▁erschte	-7.73927
tik	-7.74075
▁süd	-7.74126
▁mol	-7.74207
ard	-7.74388
ppe	-7.74653
▁16	-7.75459
▁10	-7.75758
▁ìm	-7.75856
▁das	-7.75897
▁her	-7.76074
art	-7.76112
rich	-7.76239
▁wil	-7.7648
cher	-7.76964
▁ein	-7.78179
let	-7.78297
äg	-7.79153
as	-7.79192
▁lang	-7.79385
▁hei	-7.79542
he	-7.79595
aal	-7.80323
man	-7.80731
mit	-7.80743
richt	-7.81098
▁hai	-7.81127
bärg	-7.81182
pf	-7.81295
tri	-7.81526
ord	-7.81588
▁git	-7.81731
mä	-7.8202
▁0	-7.82169
▁nu	-7.82169
▁the	-7.82279
tet	-7.83083
▁mü	-7.83228
to	-7.83416
gli	-7.83466
▁dass	-7.84454
▁nä	-7.84775
▁gmai	-7.85005
igs	-7.85248
▁gs	-7.85267
anisch	-7.85531
änt	-7.86229
▁gege	-7.86241
▁y	-7.86255
▁ganz	-7.86583
mol	-7.86695
▁joor	-7.87002
▁bro	-7.87018
bo	-7.87428
▁zit	-7.875
sam	-7.87578
stell	-7.87641
ndet	-7.87709
▁rh	-7.87933
itz	-7.8809
▁bau	-7.88237
▁ni	-7.88429
▁ja	-7.88934
tor	-7.89098
▁iber	-7.89133
▁gf	-7.89237
▁haupt	-7.89249
▁uss	-7.89406
ort	-7.89541
▁11	-7.8955
va	-7.8956
▁chi	-7.8964
wer	-7.90015
▁gä	-7.90474
▁worre	-7.90583
bar	-7.90601
ia	-7.90856
ligi	-7.91162
▁ca	-7.91229
▁hoch	-7.91301
▁gmein	-7.91452
▁von	-7.91565
hof	-7.91907
gen	-7.9201
net	-7.93191
▁andere	-7.94996
fer	-7.95434
gsch	-7.95752
ud	-7.95753
co	-7.95854
sto	-7.96266
ün	-7.96347
gt	-7.96596
▁zwei	-7.97995
▁chr	-7.98519
arte	-7.9861
rö	-7.98673
see	-7.98679
gel	-7.98687
rächt	-7.98825
▁bu	-7.98924
▁cho	-7.99139
▁wider	-7.99563
▁fri	-7.99581
▁po	-7.99741
▁ta	-7.99951
ub	-8.00098
pr	-8.0016
▁nid	-8.00179
▁hö	-8.00436
▁bild	-8.01125
▁2011	-8.01358
▁ku	-8.0144
▁ri	-8.01749
▁durch	-8.02049
je	-8.02277
ò	-8.02424
her	-8.03333
▁sit	-8.03421
õ	-8.0426
▁nach	-8.04336
chrieg	-8.04489
äch	-8.04512
▁hu	-8.04522
▁str	-8.05388
nis	-8.05802
äss	-8.05957
ön	-8.06018
ens	-8.06355
▁to	-8.06404
▁gri	-8.06696
ong	-8.06897
elle	-8.07108
ling	-8.07116
▁wält	-8.07165
huus	-8.0739
ry	-8.07749
▁ihre	-8.08494
ht	-8.08859
▁pf	-8.09558
schw	-8.09568
ann	-8.09597
fang	-8.09798
▁neu	-8.09879
go	-8.09949
▁hend	-8.10147
mann	-8.10748
▁sä	-8.10933
▁wald	-8.11611
▁stu	-8.11722
▁bri	-8.11904
uur	-8.12258
yr	-8.12401
tische	-8.12831
▁är	-8.13205
wo	-8.13264
schuel	-8.13424
▁ùn	-8.13877
▁gre	-8.13922
ku	-8.14036
bau	-8.14668
▁yy	-8.14732
▁hèt	-8.14809
sti	-8.1493
sion	-8.14964
gebiet	-8.15055
▁2000	-8.15181
▁zur	-8.15281
▁wärde	-8.1552
lag	-8.1561
wohner	-8.16098
▁diè	-8.16432
▁par	-8.16517
sser	-8.1653
teil	-8.16592
bt	-8.1673
▁nume	-8.16828
nau	-8.16905
▁ob	-8.18109
▁km	-8.1834
zo	-8.18366
▁sei	-8.18467
schrift	-8.18603
▁bim	-8.18684
▁abg	-8.18845
▁bundes	-8.18867
▁gmacht	-8.18932
tal	-8.19299
▁mon	-8.19395
▁name	-8.19595
▁wy	-8.19629
50	-8.19664
▁gross	-8.19731
fluss	-8.20271
▁ur	-8.2087
▁te	-8.20887
sprooch	-8.20894
▁schwiiz	-8.21258
all	-8.21431
üss	-8.21431
heit	-8.21507
the	-8.22191
▁zwüsche	-8.22211
▁ghört	-8.22261
▁ex	-8.2237
tel	-8.23115
schp	-8.2313
qu	-8.23335
cho	-8.23777
los	-8.23787
eret	-8.24025
ring	-8.24262
▁erscht	-8.2442
▁basel	-8.24728
stadt	-8.25601
halb	-8.26057
▁lyt	-8.26084
▁ga	-8.26332
▁schwiz	-8.26609
baan	-8.27359
tter	-8.27371
fall	-8.27489
ält	-8.27612
flechi	-8.2801
▁dorf	-8.28057
mpf	-8.2843
▁du	-8.28534
▁sproch	-8.28541
▁dialäkt	-8.28648
▁frü	-8.28822
atur	-8.29015
wald	-8.29886
mmer	-8.29935
bahn	-8.30061
▁wenn	-8.30598
▁worrè	-8.31018
gränz	-8.31099
▁drei	-8.31357
▁däm	-8.31851
▁frei	-8.32121
▁qu	-8.32241
àn	-8.32286
▁bade	-8.3236
ller	-8.32406
▁deil	-8.32773
zion	-8.32984
▁zämme	-8.33429
dorf	-8.33838
▁frank	-8.34217
ismus	-8.3437
▁johrhundert	-8.34546
alemannisch	-8.34709
heim	-8.34885
buech	-8.35319
▁wescht	-8.35524
▁bekannt	-8.35609
▁wii	-8.35639
▁immer	-8.35645
iere	-8.36065
▁zom	-8.37389
halte	-8.37545
ë	-8.38041
▁allem	-8.38117
▁änd	-8.3832
rych	-8.38412
▁well	-8.38473
▁rä	-8.38483
▁gründ	-8.38656
deil	-8.38946
▁èm	-8.40392
stro	-8.40856
▁mil	-8.41128
lech	-8.41354
mänt	-8.41767
iir	-8.42052
▁ti	-8.42133
▁geb	-8.42205
▁jo	-8.42611
root	-8.42699
▁jahr	-8.42949
▁dialekt	-8.43033
▁anderi	-8.43233
sproch	-8.43377
▁000	-8.43495
â	-9.01318
ǜ	-9.0467
á	-9.09359
í	-9.37913
‘	-9.44911
å	-9.45871
ó	-9.69531
ã	-9.74438
‚	-9.75622
ẽ	-9.81189
q	-9.85562
û	-9.95834
ā	-9.99616
ç	-10.149
α	-10.1652
ο	-10.2609
ê	-10.2901
î	-10.5549
š	-10.5622
ρ	-10.6093
ι	-10.6508
ν	-10.6615
ō	-10.7193
ú	-10.7868
ī	-10.7899
ς	-10.7899
τ	-10.8052
ï	-10.9658
λ	-10.9804
ε	-10.9953
ə	-11.049
ˈ	-11.053
κ	-11.053
ñ	-11.0649
μ	-11.0934
č	-11.0934
ا	-11.1398
σ	-11.193
а	-11.2161
ɛ	-11.2302
ı	-11.2886
ː	-11.2886
י	-11.2936
æ	-11.314
δ	-11.3613
ē	-11.3722
ά	-11.4054
ū	-11.4168
ו	-11.4282
ί	-11.434
ل	-11.4398
ÿ	-11.4457
œ	-11.4694
υ	-11.4754
η	-11.4754
π	-11.4876
θ	-11.5572
е	-11.6181
γ	-11.6392
о	-11.6392
ʃ	-11.6535
ɔ	-11.6754
ה	-11.6754
ר	-11.6828
ð	-11.6978
ø	-11.6978
ő	-11.6978
β	-11.6978
р	-11.713
ą	-11.7207
н	-11.7207
и	-11.7363
ł	-11.7441
ό	-11.7441
ś	-11.7682
̃	-11.7682
к	-11.8265
χ	-11.8351
с	-11.8704
ṣ	-11.8885
ę	-11.9162
‹	-11.9162
ر	-11.9545
ş	-11.9643
ḫ	-11.9842
þ	-11.9842
ω	-11.9943
ḥ	-12.0045
л	-12.0148
ש	-12.0253
م	-12.0253
ي	-12.0358
ב	-12.0358
ל	-12.0572
φ	-12.0901
ý	-12.0902
ć	-12.0902
ת	-12.0902
ن	-12.0902
्	-12.1014
ž	-12.1128
в	-12.1359
т	-12.1716
א	-12.1716
ʾ	-12.1838
ή	-12.1961
ύ	-12.2603
ğ	-12.2736
מ	-12.3288
נ	-12.3288
ĩ	-12.3431
د	-12.3431
ɪ	-12.3431
ă	-12.3576
×	-12.3576
έ	-12.3723
м	-12.3723
ب	-12.4023
ǒ	-12.4333
र	-12.4492
ד	-12.4984
ʿ	-12.5501
у	-12.5501
ě	-12.568
ʻ	-12.6047
ा	-12.6236
̀	-12.6428
כ	-12.6624
و	-12.6624
ם	-12.7028
ɑ	-12.7449
д	-12.7449
ř	-12.7889
س	-12.7889
ע	-12.8116
г	-12.8116
פ	-12.8349
ح	-12.8349
ּ	-12.8587
ũ	-12.8831
ǝ	-12.8831
ь	-12.9081
я	-12.9081
п	-12.9337
ů	-12.9337
ṇ	-12.9337
ǎ	-12.96
ק	-12.9871
न	-12.9871
ḷ	-12.9871
ṭ	-12.9871
б	-12.9871
ώ	-13.0148
ń	-13.0148
й	-13.0148
ן	-13.0148
ס	-13.0148
म	-13.0148
ǐ	-13.0434
ч	-13.0434
ы	-13.0434
ș	-13.0728
ة	-13.0728
ʊ	-13.1031
̥	-13.1031
ζ	-13.1031
ח	-13.1031
ŋ	-13.1344
ʒ	-13.1344
ʕ	-13.1344
त	-13.1666
ع	-13.1666
ξ	-13.2
з	-13.2
ג	-13.2344
ṯ	-13.2344
स	-13.2344
ˁ	-13.2702
ج	-13.2702
ि	-13.2702
ग	-13.2702
̇	-13.3072
ָ	-13.3072
ְ	-13.3072
ἀ	-13.3456
ت	-13.3457
đ	-13.3457
क	-13.3457
ḍ	-13.3457
ǧ	-13.3457
ִ	-13.3857
ف	-13.3857
צ	-13.4273
ك	-13.4273
य	-13.4273
व	-13.4273
ħ	-13.4708
द	-13.4708
ַ	-13.4708
ű	-13.5163
ז	-13.5163
ŏ	-13.5639
ט	-13.5639
ی	-13.5639
х	-13.6139
ه	-13.6139
ी	-13.6139
‐	-13.6139
ق	-13.6665
ŭ	-13.6665
ु	-13.6665
ʌ	-13.6665
ᚢ	-13.7221
і	-13.7221
ʁ	-13.7221
ˀ	-13.7221
ψ	-13.7221
ش	-13.7221
ह	-13.7221
ṛ	-13.7221
ἰ	-13.7221
ῖ	-13.7809
ǔ	-13.7809
ʔ	-13.7809
प	-13.7809
ᛁ	-13.8434
ὐ	-13.8434
ĉ	-13.8434
ɲ	-13.8434
ц	-13.8434
ỏ	-13.8434
ɐ	-13.91
ᚨ	-13.9815
ш	-13.9815
ю	-13.9815
ص	-13.9815
ġ	-13.9815
ț	-13.9815
ط	-13.9815
ᚾ	-13.9815
ʀ	-13.9815
ं	-14.0584
ż	-14.0584
ز	-14.0584
ɣ	-14.0584
ṃ	-14.0584
ֹ	-14.0584
ẓ	-14.1417
̊	-14.1417
ᚱ	-14.1417
ء	-14.1417
ῦ	-14.1417
ᛚ	-14.2326
ध	-14.2326
ण	-14.2326
ो	-14.2326
ἄ	-14.2326
ё	-14.2326
子	-14.2326
श	-14.2326
ᛟ	-14.3326
ल	-14.3326
ḗ	-14.3326
ῆ	-14.3326
ţ	-14.3326
ж	-14.3326
ץ	-14.3326
北	-14.3326
ъ	-14.3326
ׁ	-14.3326
ष	-14.3326
े	-14.3326
ź	-14.4438
خ	-14.4438
ϝ	-14.4438
э	-14.4438
ᚭ	-14.4438
ф	-14.4438
ɒ	-14.5688
ज	-14.5688
ʎ	-14.5688
ʏ	-14.5688
@	-14.5688
ė	-14.5688
ň	-14.5688
ئ	-14.5688
ब	-14.5688
ᚦ	-14.5688
人	-14.5688
ⴰ	-14.5688
ᛞ	-14.7116
ἴ	-14.7116
ˌ	-14.7116
ᚷ	-14.7116
ĝ	-14.7116
ɘ	-14.7116
ј	-14.7116
ֶ	-14.7116
آ	-14.7116
ث	-14.7116
ὴ	-14.7116
ῶ	-14.7116
ー	-14.7116
大	-14.7116
한	-14.7116
ǖ	-14.7116
щ	-14.7116
ա	-14.7116
̯	-14.8783
ո	-14.8783
ὁ	-14.8783
ǟ	-14.8783
ɟ	-14.8783
̔	-14.8783
״	-14.8783
ض	-14.8783
غ	-14.8783
ّ	-14.8783
ồ	-14.8783
ờ	-14.8783
中	-14.8783
南	-14.8783
国	-14.8783
文	-14.8783
本	-14.8783
越	-14.8783
선	-14.8783
ŝ	-14.8783
ɵ	-14.8783
ἱ	-14.8783
ू	-14.8783
성	-14.8783
ⵣ	-14.8783
ᚹ	-14.8783
ᛊ	-15.0783
ᛗ	-15.0783
ր	-15.0783
भ	-15.0783
ृ	-15.0783
ᚴ	-15.0783
ṓ	-15.0783
ĕ	-15.0783
ĭ	-15.0783
ɡ	-15.0783
˦	-15.0783
́	-15.0783
ն	-15.0783
ა	-15.0783
ᛦ	-15.0783
ḏ	-15.0783
ᾶ	-15.0783
國	-15.0783
支	-15.0783
王	-15.0783
韓	-15.0783
김	-15.0783
정	-15.0783
ᛏ	-15.0783
ỡ	-15.0783
ե	-15.0783
া	-15.0783
ᛋ	-15.0783
東	-15.0783
थ	-15.0783
ા	-15.0783
ǚ	-15.0783
ン	-15.0783
अ	-15.3283
ᛉ	-15.3283
إ	-15.3283
ᛇ	-15.3283
ἡ	-15.3283
대	-15.3283
ʼ	-15.3283
ŗ	-15.3283
조	-15.3283
ť	-15.3283
ɨ	-15.3283
˩	-15.3283
մ	-15.3283
ֵ	-15.3283
ظ	-15.3283
་	-15.3283
ᚲ	-15.3283
ớ	-15.3283
ὅ	-15.3283
⁠	-15.3283
∫	-15.3283
≈	-15.3283
ⴻ	-15.3283
地	-15.3283
朝	-15.3283
西	-15.3283
食	-15.3283
국	-15.3283
민	-15.3283
ǘ	-15.3283
ṅ	-15.3283
ɯ	-15.3283
ֲ	-15.3283
ܐ	-15.3283
च	-15.3283
ἑ	-15.3283
ⴷ	-15.3283
پ	-15.3283
্	-15.3283
ア	-15.3283
ک	-15.3283
র	-15.3283
ẕ	-15.6616
ᚻ	-15.6616
ἥ	-15.6616
ĵ	-15.6616
ĺ	-15.6616
ļ	-15.6616
ľ	-15.6616
ŕ	-15.6616
ȫ	-15.6616
̂	-15.6616
ΐ	-15.6616
ђ	-15.6616
ҷ	-15.6616
ի	-15.6616
վ	-15.6616
տ	-15.6616
ך	-15.6616
ף	-15.6616
׳	-15.6616
ܝ	-15.6616
ܡ	-15.6616
ܪ	-15.6616
ॐ	-15.6616
า	-15.6616
ᚠ	-15.6616
ᚩ	-15.6616
ᚺ	-15.6616
ᛒ	-15.6616
ᛖ	-15.6616
ḱ	-15.6616
ễ	-15.6616
ố	-15.6616
ữ	-15.6616
ὖ	-15.6616
ὰ	-15.6616
ᾱ	-15.6616
ῥ	-15.6616
‡	-15.6616
⁄	-15.6616
↔	-15.6616
⊕	-15.6616
♀	-15.6616
♂	-15.6616
い	-15.6616
ト	-15.6616
ニ	-15.6616
之	-15.6616
五	-15.6616
会	-15.6616
午	-15.6616
可	-15.6616
吃	-15.6616
天	-15.6616
州	-15.6616
所	-15.6616
政	-15.6616
方	-15.6616
曆	-15.6616
李	-15.6616
汗	-15.6616
玉	-15.6616
的	-15.6616
話	-15.6616
话	-15.6616
部	-15.6616
都	-15.6616
윤	-15.6616
일	-15.6616
ὕ	-15.6616
孔	-15.6616
박	-15.6616
ͱ	-15.6616
ө	-15.6616
आ	-15.6616
ौ	-15.6616
ર	-15.6616
ᚼ	-15.6616
ᛅ	-15.6616
ⵍ	-15.6616
モ	-15.6616
이	-15.6616
남	-15.6616
ɤ	-15.6616
ި	-15.6616
ት	-15.6616
동	-15.6616
자	-15.6616
އ	-16.1616
ެ	-16.1616
ञ	-16.1616
ɥ	-16.1616
ɹ	-16.1616
ہ	-16.1616
દ	-16.1616
ṗ	-16.1616
ἅ	-16.1616
ケ	-16.1616
ポ	-16.1616
북	-16.1616
ģ	-16.1616
ĥ	-16.1616
ņ	-16.1616
ų	-16.1616
ƿ	-16.1616
ǯ	-16.1616
ȭ	-16.1616
ȯ	-16.1616
ȱ	-16.1616
ȳ	-16.1616
ɫ	-16.1616
ʤ	-16.1616
̈	-16.1616
̣	-16.1616
͂	-16.1616
ͤ	-16.1616
ϙ	-16.1616
ϟ	-16.1616
ї	-16.1616
ў	-16.1616
ү	-16.1616
ӧ	-16.1616
ղ	-16.1616
־	-16.1616
ׂ	-16.1616
ؤ	-16.1616
ى	-16.1616
ُ	-16.1616
ۇ	-16.1616
ێ	-16.1616
ܗ	-16.1616
ܢ	-16.1616
ހ	-16.1616
ާ	-16.1616
ް	-16.1616
ठ	-16.1616
ड	-16.1616
ত	-16.1616
য	-16.1616
ં	-16.1616
મ	-16.1616
સ	-16.1616
ો	-16.1616
ท	-16.1616
ย	-16.1616
ร	-16.1616
อ	-16.1616
ไ	-16.1616
ན	-16.1616
დ	-16.1616
ሕ	-16.1616
ያ	-16.1616
ጵ	-16.1616
ᛃ	-16.1616
ᛈ	-16.1616
ᛜ	-16.1616
ᛠ	-16.1616
ᛤ	-16.1616
ḑ	-16.1616
ề	-16.1616
ὀ	-16.1616
ὂ	-16.1616
ὶ	-16.1616
ὸ	-16.1616
ῳ	-16.1616
ↂ	-16.1616
∅	-16.1616
∞	-16.1616
∼	-16.1616
≤	-16.1616
ⵃ	-16.1616
ⵉ	-16.1616
ⵎ	-16.1616
ⵏ	-16.1616
ⵓ	-16.1616
ⵔ	-16.1616
ⵜ	-16.1616
す	-16.1616
ち	-16.1616
で	-16.1616
に	-16.1616
の	-16.1616
ま	-16.1616
ん	-16.1616
チ	-16.1616
ッ	-16.1616
メ	-16.1616
东	-16.1616
书	-16.1616
京	-16.1616
仁	-16.1616
住	-16.1616
佢	-16.1616
儿	-16.1616
公	-16.1616
利	-16.1616
博	-16.1616
县	-16.1616
叉	-16.1616
友	-16.1616
司	-16.1616
哥	-16.1616
夜	-16.1616
妖	-16.1616
學	-16.1616
官	-16.1616
尹	-16.1616
庸	-16.1616
弁	-16.1616
德	-16.1616
思	-16.1616
性	-16.1616
想	-16.1616
慶	-16.1616
成	-16.1616
戦	-16.1616
攸	-16.1616
日	-16.1616
旨	-16.1616
明	-16.1616
智	-16.1616
朋	-16.1616
毛	-16.1616
民	-16.1616
漢	-16.1616
犬	-16.1616
白	-16.1616
知	-16.1616
立	-16.1616
红	-16.1616
能	-16.1616
船	-16.1616
語	-16.1616
这	-16.1616
金	-16.1616
長	-16.1616
閩	-16.1616
饭	-16.1616
馬	-16.1616
鮮	-16.1616
鼠	-16.1616
규	-16.1616
글	-16.1616
기	-16.1616
만	-16.1616
반	-16.1616
부	-16.1616
승	-16.1616
연	-16.1616
운	-16.1616
재	-16.1616
제	-16.1616
주	-16.1616
회	-16.1616
ả	-16.1616
ộ	-16.1616
ď	-16.1616
ɾ	-16.1616
қ	-16.1616
ܒ	-16.1616
ै	-16.1616
ⵢ	-16.1616
タ	-16.1616
ϊ	-16.1616
ֻ	-16.1616
ރ	-16.1616
ন	-16.1616
ኢ	-16.1616
ዮ	-16.1616
ス	-16.1616
パ	-16.1616
인	-16.1616
ব	-16.1616
ޖ	-16.1616
ު	-16.1616
˨	-17.1593
ἔ	-17.1594
ệ	-17.1595
‰	-17.1596
̓	-17.1597
˥	-17.1598
أ	-17.1599
ἐ	-17.16
˧	-17.1601
‿	-17.1602
€	-17.1603
′	-17.1604
›	-17.1605
−	-17.1606
→	-17.1607
•	-17.1608
—	-17.1609
”	-17.161
`	-17.1611
.	-17.1612
†	-17.1613
–	-17.1614
„	-17.1615
ձ	-17.1616
ւ	-17.1616
ވ	-17.1616
ἠ	-17.1616
ἤ	-17.1616
伽	-17.1616
御	-17.1616
̧	-17.1616
ײ	-17.1616
R	-17.1616
ŧ	-17.1616
ŵ	-17.1616
ŷ	-17.1616
ƒ	-17.1616
ƚ	-17.1616
ƞ	-17.1616
ơ	-17.1616
ǫ	-17.1616
ȝ	-17.1616
ɕ	-17.1616
ɖ	-17.1616
ɜ	-17.1616
ɝ	-17.1616
ɦ	-17.1616
ɴ	-17.1616
ʉ	-17.1616
ʋ	-17.1616
ʦ	-17.1616
ˇ	-17.1616
̆	-17.1616
̌	-17.1616
̩	-17.1616
̪	-17.1616
ͦ	-17.1616
ͧ	-17.1616
ͳ	-17.1616
ϡ	-17.1616
ћ	-17.1616
ҳ	-17.1616
ӈ	-17.1616
ӑ	-17.1616
բ	-17.1616
գ	-17.1616
է	-17.1616
լ	-17.1616
ծ	-17.1616
կ	-17.1616
հ	-17.1616
յ	-17.1616
շ	-17.1616
ց	-17.1616
փ	-17.1616
ֿ	-17.1616
ذ	-17.1616
ـ	-17.1616
ْ	-17.1616
ٴ	-17.1616
ڬ	-17.1616
گ	-17.1616
ھ	-17.1616
ۈ	-17.1616
ܛ	-17.1616
ܠ	-17.1616
ܥ	-17.1616
ܩ	-17.1616
ܬ	-17.1616
ދ	-17.1616
ގ	-17.1616
ޔ	-17.1616
ޫ	-17.1616
ޭ	-17.1616
इ	-17.1616
उ	-17.1616
ऋ	-17.1616
ओ	-17.1616
ङ	-17.1616
ऽ	-17.1616
ক	-17.1616
জ	-17.1616
ঠ	-17.1616
থ	-17.1616
ল	-17.1616
স	-17.1616
়	-17.1616
ি	-17.1616
ু	-17.1616
ક	-17.1616
ખ	-17.1616
ચ	-17.1616
ધ	-17.1616
ન	-17.1616
બ	-17.1616
લ	-17.1616
હ	-17.1616
ી	-17.1616
્	-17.1616
ก	-17.1616
ง	-17.1616
จ	-17.1616
ช	-17.1616
ณ	-17.1616
ั	-17.1616
མ	-17.1616
ཚ	-17.1616
ར	-17.1616
ི	-17.1616
ོ	-17.1616
ྒ	-17.1616
ྟ	-17.1616
ྱ	-17.1616
ე	-17.1616
ვ	-17.1616
თ	-17.1616
ლ	-17.1616
ო	-17.1616
რ	-17.1616
ს	-17.1616
უ	-17.1616
ფ	-17.1616
ქ	-17.1616
შ	-17.1616
ሥ	-17.1616
ሪ	-17.1616
ራ	-17.1616
ቀ	-17.1616
ባ	-17.1616
ተ	-17.1616
ይ	-17.1616
፡	-17.1616
ᚡ	-17.1616
ᚤ	-17.1616
ᚪ	-17.1616
ᚫ	-17.1616
ᚬ	-17.1616
ᚳ	-17.1616
ᚵ	-17.1616
ᚶ	-17.1616
ᚸ	-17.1616
ᛂ	-17.1616
ᛄ	-17.1616
ᛑ	-17.1616
ᛘ	-17.1616
ᛝ	-17.1616
ᛣ	-17.1616
ᛩ	-17.1616
ḝ	-17.1616
ḳ	-17.1616
ṑ	-17.1616
ṷ	-17.1616
ẁ	-17.1616
ẏ	-17.1616
ạ	-17.1616
ấ	-17.1616
ậ	-17.1616
ế	-17.1616
ể	-17.1616
ỉ	-17.1616
ổ	-17.1616
ủ	-17.1616
ừ	-17.1616
ἁ	-17.1616
ὄ	-17.1616
ὔ	-17.1616
ὠ	-17.1616
ὤ	-17.1616
ὥ	-17.1616
ὲ	-17.1616
ὺ	-17.1616
ὼ	-17.1616
ᾠ	-17.1616
ῑ	-17.1616
∑	-17.1616
≠	-17.1616
⚭	-17.1616
ⵖ	-17.1616
ⵙ	-17.1616
ⵡ	-17.1616
エ	-17.1616
ク	-17.1616
シ	-17.1616
ズ	-17.1616
ソ	-17.1616
ノ	-17.1616
ョ	-17.1616
リ	-17.1616
ル	-17.1616
ヵ	-17.1616
一	-17.1616
丁	-17.1616
上	-17.1616
不	-17.1616
与	-17.1616
丑	-17.1616
世	-17.1616
业	-17.1616
个	-17.1616
乎	-17.1616
也	-17.1616
二	-17.1616
交	-17.1616
亥	-17.1616
介	-17.1616
他	-17.1616
代	-17.1616
们	-17.1616
伊	-17.1616
伎	-17.1616
佗	-17.1616
信	-17.1616
儒	-17.1616
元	-17.1616
克	-17.1616
兔	-17.1616
兪	-17.1616
八	-17.1616
円	-17.1616
冇	-17.1616
判	-17.1616
前	-17.1616
力	-17.1616
勉	-17.1616
勒	-17.1616
動	-17.1616
匈	-17.1616
半	-17.1616
協	-17.1616
卯	-17.1616
印	-17.1616
原	-17.1616
厥	-17.1616
去	-17.1616
古	-17.1616
叫	-17.1616
台	-17.1616
史	-17.1616
吉	-17.1616
君	-17.1616
呀	-17.1616
味	-17.1616
哈	-17.1616
唔	-17.1616
善	-17.1616
嘅	-17.1616
嘎	-17.1616
四	-17.1616
固	-17.1616
在	-17.1616
圭	-17.1616
坊	-17.1616
基	-17.1616
塔	-17.1616
墨	-17.1616
壇	-17.1616
壮	-17.1616
壯	-17.1616
夏	-17.1616
太	-17.1616
夫	-17.1616
奎	-17.1616
女	-17.1616
孟	-17.1616
学	-17.1616
安	-17.1616
定	-17.1616
家	-17.1616
宿	-17.1616
寅	-17.1616
寒	-17.1616
山	-17.1616
島	-17.1616
崔	-17.1616
巳	-17.1616
市	-17.1616
帆	-17.1616
干	-17.1616
平	-17.1616
廢	-17.1616
张	-17.1616
張	-17.1616
弼	-17.1616
後	-17.1616
徐	-17.1616
復	-17.1616
念	-17.1616
怪	-17.1616
意	-17.1616
愚	-17.1616
戌	-17.1616
戎	-17.1616
戯	-17.1616
承	-17.1616
把	-17.1616
掖	-17.1616
族	-17.1616
昊	-17.1616
易	-17.1616
時	-17.1616
晩	-17.1616
曱	-17.1616
書	-17.1616
曹	-17.1616
會	-17.1616
月	-17.1616
未	-17.1616
朱	-17.1616
朴	-17.1616
条	-17.1616
林	-17.1616
植	-17.1616
極	-17.1616
楽	-17.1616
樛	-17.1616
歌	-17.1616
止	-17.1616
此	-17.1616
武	-17.1616
汉	-17.1616
沖	-17.1616
沙	-17.1616
河	-17.1616
波	-17.1616
泰	-17.1616
泽	-17.1616
洋	-17.1616
洙	-17.1616
津	-17.1616
浦	-17.1616
渠	-17.1616
漫	-17.1616
潽	-17.1616
濬	-17.1616
灣	-17.1616
為	-17.1616
熹	-17.1616
父	-17.1616
牙	-17.1616
牛	-17.1616
特	-17.1616
狗	-17.1616
猪	-17.1616
猴	-17.1616
獨	-17.1616
环	-17.1616
班	-17.1616
瓜	-17.1616
甘	-17.1616
申	-17.1616
甴	-17.1616
电	-17.1616
画	-17.1616
界	-17.1616
番	-17.1616
畿	-17.1616
疏	-17.1616
発	-17.1616
盧	-17.1616
相	-17.1616
真	-17.1616
石	-17.1616
碧	-17.1616
礼	-17.1616
社	-17.1616
祖	-17.1616
福	-17.1616
禺	-17.1616
租	-17.1616
笔	-17.1616
笙	-17.1616
第	-17.1616
筆	-17.1616
等	-17.1616
粱	-17.1616
紀	-17.1616
羊	-17.1616
義	-17.1616
翼	-17.1616
者	-17.1616
职	-17.1616
自	-17.1616
致	-17.1616
臺	-17.1616
與	-17.1616
舞	-17.1616
若	-17.1616
草	-17.1616
蔣	-17.1616
蔵	-17.1616
虎	-17.1616
蛇	-17.1616
行	-17.1616
被	-17.1616
見	-17.1616
言	-17.1616
記	-17.1616
許	-17.1616
誓	-17.1616
誰	-17.1616
論	-17.1616
讓	-17.1616
让	-17.1616
记	-17.1616
论	-17.1616
语	-17.1616
谁	-17.1616
豹	-17.1616
賛	-17.1616
赛	-17.1616
走	-17.1616
趙	-17.1616
趾	-17.1616
路	-17.1616
載	-17.1616
輩	-17.1616
车	-17.1616
辰	-17.1616
農	-17.1616
迁	-17.1616
近	-17.1616
遊	-17.1616
運	-17.1616
遷	-17.1616
那	-17.1616
郡	-17.1616
酉	-17.1616
里	-17.1616
重	-17.1616
鑑	-17.1616
镇	-17.1616
长	-17.1616
関	-17.1616
门	-17.1616
闪	-17.1616
闽	-17.1616
陽	-17.1616
雨	-17.1616
電	-17.1616
震	-17.1616
館	-17.1616
馘	-17.1616
马	-17.1616
高	-17.1616
鬼	-17.1616
魂	-17.1616
鷄	-17.1616
龍	-17.1616
龙	-17.1616
가	-17.1616
공	-17.1616
길	-17.1616
노	-17.1616
단	-17.1616
리	-17.1616
면	-17.1616
명	-17.1616
문	-17.1616
방	-17.1616
보	-17.1616
본	-17.1616
삼	-17.1616
상	-17.1616
서	-17.1616
석	-17.1616
수	-17.1616
식	-17.1616
양	-17.1616
우	-17.1616
유	-17.1616
은	-17.1616
의	-17.1616
장	-17.1616
준	-17.1616
중	-17.1616
지	-17.1616
최	-17.1616
치	-17.1616
태	-17.1616
페	-17.1616
폐	-17.1616
필	-17.1616
하	-17.1616
허	-17.1616
현	-17.1616
협	-17.1616
호	-17.1616
화	-17.1616
희	-17.1616
𐌰	-17.1616
𐌱	-17.1616
𐌲	-17.1616
𐌳	-17.1616
𐌴	-17.1616
𐌶	-17.1616
𐌷	-17.1616
𐌸	-17.1616
𐌹	-17.1616
𐌺	-17.1616
𐌻	-17.1616
𐌼	-17.1616
𐌽	-17.1616
𐌾	-17.1616
𐌿	-17.1616
𐍀	-17.1616
𐍂	-17.1616
𐍄	-17.1616
𐍅	-17.1616
𐍆	-17.1616
𐍇	-17.1616
𐍉	-17.1616
𐰍	-17.1616
𐰣	-17.1616
ἶ	-17.1616
ῷ	-17.1616
十	-17.1616
周	-17.1616
ʅ	-17.1616
ʑ	-17.1616
ϋ	-17.1616
є	-17.1616
չ	-17.1616
ং	-17.1616
ગ	-17.1616
ફ	-17.1616
ม	-17.1616
ื	-17.1616
เ	-17.1616
བ	-17.1616
ཛ	-17.1616
འ	-17.1616
ས	-17.1616
መ	-17.1616
ር	-17.1616
ን	-17.1616
ኤ	-17.1616
ግ	-17.1616
ガ	-17.1616
コ	-17.1616
デ	-17.1616
ハ	-17.1616
ミ	-17.1616
ュ	-17.1616
式	-17.1616
株	-17.1616
澤	-17.1616
독	-17.1616
립	-17.1616
ս	-17.1616
މ	-17.1616
দ	-17.1616
ী	-17.1616
“	-17.1616
권	-17.1616
니	-17.1616
미	-17.1616
애	-17.1616
여	-17.1616
즘	-17.1616
해	-17.1616
