<unk>	0
▁ve	-4.00527
▁bir	-4.49327
n	-4.59489
▁i	-4.67782
s	-5.08597
▁de	-5.09166
̇	-5.11068
▁da	-5.11909
▁	-5.12398
▁bu	-5.13161
k	-5.13217
i	-5.16173
t	-5.17509
a	-5.21785
ler	-5.22535
lar	-5.22831
e	-5.34989
r	-5.39336
l	-5.4371
▁olarak	-5.48395
▁ile	-5.49452
m	-5.51046
li	-5.56864
y	-5.58819
leri	-5.63841
ları	-5.64931
z	-5.73404
de	-5.74518
si	-5.7456
da	-5.75418
na	-5.79726
▁a	-5.80842
ya	-5.81969
▁için	-5.86753
▁olan	-5.87756
ne	-5.91128
ma	-5.93818
p	-5.96328
lı	-5.96954
ı	-5.98109
▁yılında	-6.00131
’	-6.00464
la	-6.02168
le	-6.02792
u	-6.03342
d	-6.04911
di	-6.08722
an	-6.09086
in	-6.1055
ki	-6.12076
nin	-6.13377
▁e	-6.13426
▁en	-6.14312
▁ya	-6.16409
▁sonra	-6.17853
▁tarafından	-6.19159
dir	-6.20578
ni	-6.22932
h	-6.24197
▁in	-6.24484
ta	-6.27075
en	-6.28545
ye	-6.30895
ş	-6.31054
o	-6.314
▁daha	-6.31897
▁yer	-6.33486
sı	-6.34907
▁te	-6.36115
▁1	-6.36363
▁ilk	-6.36492
dır	-6.37615
te	-6.38255
me	-6.38353
f	-6.40032
c	-6.40669
nın	-6.41327
▁o	-6.41575
ri	-6.46039
▁ise	-6.4656
ra	-6.47099
re	-6.50217
ların	-6.50869
▁nin	-6.50875
ti	-6.51831
▁nın	-6.53591
▁çok	-6.56781
lerin	-6.56868
b	-6.57547
g	-6.5769
▁vardır	-6.59081
▁d	-6.59276
v	-6.59457
▁2	-6.59595
▁ın	-6.59713
▁büyük	-6.59862
▁ta	-6.60114
sa	-6.61257
lik	-6.61392
den	-6.6547
▁gibi	-6.66387
ca	-6.69261
lık	-6.69789
▁s	-6.7338
▁18	-6.73692
lu	-6.74488
tı	-6.75211
▁arasında	-6.77064
nda	-6.77647
▁3	-6.78212
▁iki	-6.80974
se	-6.81172
ın	-6.82041
▁kadar	-6.82665
dan	-6.82945
ü	-6.83055
er	-6.83806
▁ne	-6.84974
nde	-6.8532
ce	-6.8541
ka	-6.85986
▁ancak	-6.86572
▁na	-6.87468
▁ka	-6.89064
▁alan	-6.90105
▁yeni	-6.90855
▁göre	-6.90956
▁4	-6.90994
▁5	-6.92085
▁un	-6.9221
▁oldu	-6.93046
su	-6.93454
▁yoktur	-6.93565
ba	-6.94556
ç	-6.94642
▁u	-6.94799
dı	-6.95874
al	-6.96804
ci	-6.99279
▁km	-6.99403
▁tarihinde	-7.00284
ır	-7.0182
ir	-7.02246
mi	-7.03083
▁her	-7.03296
▁c	-7.03467
nı	-7.03676
▁diğer	-7.04108
▁olduğu	-7.04266
▁türk	-7.05751
▁karşı	-7.05774
us	-7.06068
lerini	-7.06194
un	-7.06907
larda	-7.08799
at	-7.08846
lara	-7.10072
yi	-7.10275
lan	-7.10533
▁al	-7.10546
▁me	-7.1092
▁türkiye	-7.11446
▁aynı	-7.11751
larını	-7.12134
miştir	-7.1311
ar	-7.13471
▁bağlı	-7.1402
ur	-7.14123
▁köyün	-7.14497
▁la	-7.15231
man	-7.15364
ro	-7.15411
lerde	-7.15847
▁son	-7.16669
▁su	-7.17198
▁the	-7.17452
▁se	-7.17608
▁veya	-7.17901
▁6	-7.18695
▁m	-7.19091
▁dünya	-7.19594
▁k	-7.19814
lere	-7.19865
mıştır	-7.20686
▁yıl	-7.21617
▁yol	-7.22524
to	-7.23574
▁0	-7.23651
▁ma	-7.24465
▁ayrıca	-7.24693
▁birlikte	-7.24763
▁li	-7.2498
▁ha	-7.25066
il	-7.25673
▁re	-7.25832
▁mi	-7.26114
▁an	-7.263
▁f	-7.26579
ke	-7.26942
liği	-7.27023
▁bulunan	-7.27329
▁ye	-7.27523
lerinin	-7.27713
larında	-7.27743
larının	-7.28465
▁7	-7.28586
va	-7.28891
tan	-7.28994
ge	-7.29169
ga	-7.29309
▁olup	-7.29365
yle	-7.29608
lerinde	-7.29995
▁10	-7.30886
yla	-7.31388
ini	-7.3195
▁ba	-7.32477
▁b	-7.32694
x	-7.33417
ine	-7.33815
▁eski	-7.34087
▁sa	-7.34898
be	-7.35132
▁etti	-7.35142
▁ar	-7.35166
▁ö	-7.35535
▁zaman	-7.35578
▁tek	-7.3633
lo	-7.37174
▁le	-7.37237
dur	-7.37739
len	-7.38089
▁8	-7.38468
▁ilçesine	-7.3881
ndan	-7.39398
▁sağlık	-7.39402
inde	-7.39599
stanbul	-7.39666
▁film	-7.40051
ng	-7.40179
el	-7.40372
▁önemli	-7.40393
os	-7.40936
ması	-7.41274
▁t	-7.41408
mak	-7.41472
yı	-7.41849
▁adlı	-7.42038
ken	-7.421
▁ra	-7.42204
▁nde	-7.42612
▁etki	-7.42634
lama	-7.42725
▁şarkı	-7.42874
▁görev	-7.43393
▁adı	-7.43484
▁ni	-7.43891
it	-7.44057
ğ	-7.4406
▁di	-7.44292
▁yapılan	-7.4442
vi	-7.44733
▁be	-7.44838
tik	-7.45196
larına	-7.45255
▁15	-7.45591
du	-7.4564
et	-7.45888
▁’	-7.45977
on	-7.45985
maktadır	-7.46083
arak	-7.4615
▁do	-7.46852
mış	-7.47003
▁g	-7.47357
lerine	-7.48299
▁ev	-7.48746
▁ak	-7.49225
ul	-7.49337
▁den	-7.4946
▁genel	-7.4961
▁tüm	-7.49765
ch	-7.50049
▁ko	-7.50137
▁at	-7.50195
w	-7.50265
lerinden	-7.50443
▁önce	-7.5062
miş	-7.50783
▁üç	-7.50894
st	-7.51071
ve	-7.51271
▁şebekesi	-7.51325
▁başladı	-7.51413
bi	-7.51956
lü	-7.52072
▁iş	-7.52619
çi	-7.52897
▁yüksek	-7.5298
sında	-7.53165
▁fa	-7.53319
▁ptt	-7.53998
▁17	-7.5414
â	-7.54178
ını	-7.54354
▁kara	-7.54487
▁aldı	-7.54961
lığı	-7.55003
sel	-7.55062
▁grup	-7.5508
mektedir	-7.55082
▁baş	-7.55162
▁9	-7.55633
▁p	-7.55644
▁olmuştur	-7.56063
▁kendi	-7.56185
▁nda	-7.56239
nden	-7.56242
ha	-7.56424
▁içinde	-7.56484
▁savaş	-7.56947
▁avrupa	-7.576
▁köy	-7.57605
▁ay	-7.58469
▁12	-7.58641
▁er	-7.58757
▁ki	-7.58879
▁hi	-7.59033
▁center	-7.59291
▁süre	-7.59551
▁birçok	-7.59642
tır	-7.59658
▁si	-7.60272
▁abd	-7.60835
▁align	-7.61763
▁kişi	-7.61921
▁dan	-7.62039
ak	-7.62453
▁bazı	-7.62497
sinde	-7.62763
za	-7.62812
or	-7.62961
tu	-7.63079
ck	-7.63192
▁el	-7.63323
lardan	-7.63343
ten	-7.63632
do	-7.63681
ik	-7.63896
▁üzerine	-7.64336
▁ı	-7.64412
erek	-7.64539
▁ke	-7.64583
▁orta	-7.6477
▁mahallenin	-7.65042
no	-7.65093
leme	-7.6525
▁hem	-7.65436
▁16	-7.65619
▁mo	-7.65826
lerden	-7.66128
▁bo	-7.66353
▁to	-7.6645
▁yaptı	-7.66513
luk	-7.66635
▁devam	-7.66789
▁so	-7.67236
▁ek	-7.67397
ran	-7.67729
▁h	-7.6811
▁üniversitesi	-7.68125
î	-7.68336
▁takım	-7.6882
▁devlet	-7.69086
inin	-7.69257
▁sahip	-7.69541
sini	-7.7002
▁kez	-7.70313
larından	-7.70548
▁ikinci	-7.70674
▁okulu	-7.70749
im	-7.70799
▁gelen	-7.71278
es	-7.71425
▁ca	-7.71461
sal	-7.71489
▁nun	-7.7189
▁mar	-7.72044
▁va	-7.72112
▁gün	-7.72214
tir	-7.72214
maya	-7.72641
▁farklı	-7.72665
▁ro	-7.72869
▁fi	-7.7298
▁11	-7.73096
cı	-7.73367
ği	-7.73395
▁vi	-7.73457
▁mart	-7.73786
▁şekilde	-7.73858
▁köyde	-7.73955
lk	-7.74002
▁fakat	-7.74276
▁iyi	-7.74533
▁yayın	-7.74837
▁küçük	-7.754
▁çıkar	-7.75406
▁“	-7.75451
ko	-7.75628
j	-7.75807
▁bilgi	-7.76
ter	-7.76212
▁geri	-7.76242
is	-7.76311
um	-7.76596
▁ku	-7.76765
▁bulunmaktadır	-7.76905
▁pa	-7.76954
▁üzere	-7.77027
▁”	-7.77041
▁osmanlı	-7.77286
▁ga	-7.7732
▁olduğunu	-7.77337
▁19	-7.77387
▁ana	-7.77581
ver	-7.78028
▁r	-7.78112
▁20	-7.7812
spor	-7.783
▁tarım	-7.78463
nu	-7.79122
▁14	-7.79217
zi	-7.79268
hi	-7.79536
▁fazla	-7.79945
mek	-7.79979
ında	-7.80003
fa	-7.80125
▁savaşı	-7.80427
ton	-7.80809
fi	-7.80995
sine	-7.81048
▁top	-7.81233
2	-7.81263
▁oyuncu	-7.81393
▁kabul	-7.81628
▁pi	-7.81865
▁üzerinde	-7.81885
▁doğu	-7.82079
▁sıra	-7.82455
▁kasım	-7.82611
▁alanı	-7.82832
▁yapı	-7.8286
mesi	-7.83746
▁13	-7.83812
ru	-7.83903
▁iklimi	-7.84763
▁dir	-7.84881
co	-7.85289
▁açık	-7.85296
▁elektrik	-7.85385
th	-7.85494
ö	-7.8567
▁şehir	-7.85706
▁ardından	-7.85874
▁har	-7.85929
▁mayıs	-7.86142
son	-7.86242
▁he	-7.86437
▁az	-7.86456
▁2010	-7.86488
▁müzik	-7.8659
cu	-7.86631
mo	-7.86834
▁hakkında	-7.87058
nun	-7.87263
yan	-7.87292
diği	-7.87382
▁merkezi	-7.87436
▁konu	-7.881
▁şu	-7.88204
▁ocak	-7.88331
▁uzun	-7.88941
▁mu	-7.89458
▁nüfusu	-7.89486
▁çeşitli	-7.89743
▁san	-7.89806
sinin	-7.89983
▁eden	-7.90008
go	-7.90509
▁kuzey	-7.90691
lerle	-7.90833
▁ama	-7.91101
pan	-7.91345
▁doğru	-7.91385
bo	-7.91636
▁suyu	-7.91699
▁güney	-7.917
▁of	-7.91736
▁kur	-7.91821
▁tür	-7.92057
▁kar	-7.92226
▁eylül	-7.92767
ül	-7.92785
▁ekim	-7.93076
▁po	-7.93482
▁ilinin	-7.93568
▁var	-7.93625
▁biri	-7.94015
▁haziran	-7.94138
▁2009	-7.94408
▁ho	-7.9452
am	-7.94695
▁mü	-7.94833
é	-7.94911
▁bey	-7.95067
ist	-7.95275
ür	-7.95307
▁olması	-7.95593
▁as	-7.95637
▁lig	-7.95703
ça	-7.95744
▁pe	-7.95801
▁futbol	-7.95906
▁du	-7.95951
der	-7.96042
▁aralık	-7.96153
ktan	-7.96171
▁on	-7.96252
▁nisan	-7.96275
▁ağustos	-7.97027
sını	-7.97116
▁yılları	-7.97527
▁telefon	-7.97578
▁man	-7.97635
▁sadece	-7.98063
▁temmuz	-7.98288
▁fe	-7.98306
sına	-7.98347
▁amerika	-7.98358
▁olmak	-7.98508
larla	-7.98647
▁gi	-7.98704
▁burada	-7.98832
▁yakın	-7.98849
▁bağ	-7.98896
▁sabit	-7.99072
▁000	-7.992
▁nüfus	-7.99261
▁deniz	-7.9953
ll	-7.99585
▁evi	-7.99786
▁olma	-7.99815
han	-7.99836
▁lo	-7.99845
▁özellikle	-8.00009
▁daki	-8.00035
▁n	-8.0011
▁sağlayan	-8.00135
▁yı	-8.0015
ing	-8.00769
▁kısa	-8.01229
ad	-8.01436
ına	-8.01651
▁batı	-8.01687
gi	-8.02111
çe	-8.02161
pe	-8.02456
▁eğitim	-8.02581
▁ülke	-8.02612
▁oyun	-8.02829
▁kap	-8.02939
▁parti	-8.03088
▁hava	-8.03126
▁ortaya	-8.03222
fe	-8.03454
▁söz	-8.03499
▁özel	-8.03758
▁mahallede	-8.04214
▁ri	-8.04291
ğı	-8.04499
daki	-8.0476
▁ayrı	-8.05073
00	-8.05273
▁yaz	-8.05391
▁sırasında	-8.05523
▁albüm	-8.05561
ol	-8.0578
▁bunun	-8.06067
▁merkez	-8.06162
▁–	-8.06296
ze	-8.06532
▁onun	-8.06592
▁2011	-8.06753
▁30	-8.06883
▁ad	-8.06991
▁dil	-8.07059
▁zamanda	-8.07082
▁çek	-8.07218
▁toplam	-8.07288
▁kadın	-8.0734
▁şehrin	-8.0751
▁bölge	-8.07706
▁gol	-8.07752
deki	-8.07936
▁tur	-8.08133
as	-8.08146
▁tam	-8.08577
▁sayı	-8.0864
ının	-8.08672
▁uzaklıktadır	-8.0871
▁bulunur	-8.08746
ku	-8.08849
siz	-8.08895
▁tarihi	-8.0929
▁l	-8.09412
ip	-8.0951
▁2008	-8.09569
▁karar	-8.09631
▁birleşik	-8.09692
▁şubat	-8.0991
▁yaklaşık	-8.1014
▁çocuk	-8.10167
ut	-8.10363
ıp	-8.10424
▁hareket	-8.10458
▁ara	-8.10549
▁ol	-8.1068
▁eder	-8.11243
▁öz	-8.1173
acak	-8.12068
▁yaptığı	-8.12493
▁il	-8.12622
▁başka	-8.12688
ün	-8.12759
▁almanya	-8.12772
▁içme	-8.12881
rt	-8.13
van	-8.13329
▁bas	-8.13335
▁edilmiştir	-8.13351
▁ankara	-8.13359
▁cols	-8.13417
pa	-8.13591
▁x	-8.13687
▁yılı	-8.13782
▁boyunca	-8.13854
▁şubesi	-8.13898
▁sanat	-8.1407
▁alman	-8.14321
▁maç	-8.14401
kan	-8.1442
▁roma	-8.1461
▁ekonomisi	-8.1462
▁ge	-8.14623
▁ocağı	-8.14747
▁insan	-8.14961
▁v	-8.1514
▁olur	-8.15225
▁yazı	-8.15309
▁millî	-8.15329
▁ele	-8.15539
dığı	-8.15768
dü	-8.15959
▁tekrar	-8.15998
▁co	-8.16048
▁dönem	-8.16093
▁2007	-8.16151
▁tanım	-8.163
▁ses	-8.16358
▁2012	-8.16399
▁bilim	-8.1654
▁halk	-8.16732
abilir	-8.17077
▁sistemi	-8.17175
yo	-8.17384
▁kal	-8.17561
▁2006	-8.17609
▁jo	-8.17713
sının	-8.1773
▁amerikan	-8.17812
▁hizmet	-8.17842
▁ilköğretim	-8.17879
▁altında	-8.17924
▁ordu	-8.18647
çı	-8.18718
▁şa	-8.19215
▁ulaşımı	-8.19416
▁dört	-8.19442
unu	-8.19709
▁art	-8.19977
▁kanalizasyon	-8.20117
ok	-8.2013
▁ce	-8.20406
▁yerine	-8.20813
▁kay	-8.21095
▁kat	-8.21366
▁rağmen	-8.21396
▁bi	-8.21685
▁almıştır	-8.2179
▁destek	-8.22105
▁yeniden	-8.22154
▁yanı	-8.22483
▁dur	-8.22624
▁kazandı	-8.22633
ngiliz	-8.22663
▁nedeniyle	-8.2281
▁yazar	-8.22885
▁bil	-8.22961
▁hu	-8.23131
▁geniş	-8.23138
bu	-8.23341
▁para	-8.23367
ho	-8.23536
▁oy	-8.239
laş	-8.23988
▁gel	-8.24193
▁25	-8.24284
lanan	-8.24351
▁bin	-8.24489
nce	-8.2455
▁sal	-8.24695
▁ja	-8.24759
▁din	-8.2483
▁elde	-8.24842
▁plan	-8.25103
▁acentesi	-8.25465
ry	-8.25513
▁grubu	-8.25625
▁uluslararası	-8.2582
▁sırada	-8.25826
▁üst	-8.26346
ıldı	-8.26399
▁fransa	-8.2644
▁yine	-8.26608
▁asfalt	-8.26613
sh	-8.26684
▁genç	-8.26842
sız	-8.26851
▁sezon	-8.26869
▁takımı	-8.27209
▁yarı	-8.27261
▁and	-8.27264
wa	-8.27277
▁temel	-8.27315
men	-8.27527
▁bütün	-8.27548
▁ilgili	-8.27833
▁2014	-8.27891
▁bar	-8.28316
▁2013	-8.28317
ley	-8.28351
▁ü	-8.28373
meye	-8.28479
ıl	-8.28589
▁sağ	-8.28862
lük	-8.29175
▁no	-8.29779
ed	-8.29879
▁göz	-8.30027
ecek	-8.30078
ağı	-8.30081
tü	-8.30093
▁gu	-8.30286
▁birliği	-8.30358
gu	-8.30558
▁beyaz	-8.30617
▁edilen	-8.30734
▁sonunda	-8.30794
1	-8.30882
▁go	-8.31144
▁oğlu	-8.3135
▁kaynak	-8.31433
▁kitap	-8.31815
▁beraber	-8.31837
iye	-8.31962
▁sezonunda	-8.32681
▁rol	-8.33014
▁çin	-8.33272
▁dayalıdır	-8.33352
▁kupası	-8.33596
▁belediye	-8.33767
▁new	-8.33825
▁sayısı	-8.33926
ss	-8.33926
▁ait	-8.34114
yu	-8.34166
▁gelir	-8.34203
▁forma	-8.3437
▁hayvancılığa	-8.34433
▁genellikle	-8.34616
▁iç	-8.34808
şe	-8.34811
▁ismi	-8.34841
mp	-8.34868
▁birinci	-8.34927
▁26	-8.34949
▁ulaş	-8.35029
▁edildi	-8.35241
▁kon	-8.35506
▁2015	-8.35528
▁ii	-8.35586
▁sahiptir	-8.35614
▁ön	-8.35749
▁gerçek	-8.35818
▁aç	-8.35901
oğlu	-8.35902
mer	-8.35997
▁pek	-8.36037
ydı	-8.36049
kten	-8.36224
▁2005	-8.36238
ber	-8.36321
▁kazan	-8.36563
▁paşa	-8.36758
▁veri	-8.37006
▁başkanı	-8.37262
▁yapmıştır	-8.37347
3	-8.37366
▁çıkan	-8.37383
▁tak	-8.37417
▁yi	-8.37484
▁ci	-8.37697
bir	-8.37796
ebilir	-8.37817
yon	-8.37939
▁sahne	-8.37988
▁ed	-8.38009
▁rus	-8.38205
ış	-8.3824
▁ti	-8.38345
▁je	-8.38405
▁kan	-8.38588
▁döneminde	-8.38591
▁ün	-8.38628
▁milyon	-8.387
▁içerisindedir	-8.38749
▁ligi	-8.38822
ım	-8.38858
ydi	-8.38869
▁dışında	-8.39011
iz	-8.39168
▁çift	-8.39174
▁dahil	-8.39504
mon	-8.39511
▁araştırma	-8.3963
iş	-8.3979
▁mücadele	-8.39897
▁kız	-8.39918
▁or	-8.39962
▁dolayı	-8.39965
▁dizi	-8.40041
pi	-8.40096
▁yapan	-8.40146
▁21	-8.40173
po	-8.40173
şi	-8.40292
▁teknik	-8.40348
▁sonucu	-8.40453
muş	-8.40516
▁bilinen	-8.40529
ndeki	-8.40605
▁mer	-8.40707
gen	-8.40882
▁çıktı	-8.40902
▁kullanılan	-8.40971
id	-8.41207
▁alır	-8.41419
▁sistem	-8.41639
unda	-8.41873
▁etmiştir	-8.41914
▁belir	-8.41945
▁ze	-8.42054
▁alt	-8.42122
▁bit	-8.42441
▁tu	-8.42699
▁adıyla	-8.42837
▁anadolu	-8.42897
▁han	-8.429
▁şe	-8.42921
▁ifade	-8.43053
▁çoğu	-8.43062
▁cumhuriyeti	-8.43075
▁ordusu	-8.43202
▁üçüncü	-8.43204
▁verdi	-8.43257
▁yaş	-8.43269
▁22	-8.43725
▁bölümü	-8.43737
ic	-8.43848
▁fo	-8.4394
let	-8.44268
▁oluşan	-8.44402
▁yu	-8.44409
▁fransız	-8.44571
▁gösteri	-8.4467
ılan	-8.44698
▁pro	-8.44833
sen	-8.44995
▁bölüm	-8.45015
▁ulusal	-8.45021
▁birkaç	-8.45213
▁şey	-8.45225
lat	-8.45319
▁bölgesi	-8.45354
▁onu	-8.45372
ıcı	-8.45383
▁2000	-8.45515
▁yıldız	-8.45791
izm	-8.45983
ici	-8.46241
▁kır	-8.46286
ay	-8.46366
min	-8.46418
muştur	-8.46538
▁24	-8.46539
▁hazır	-8.46683
▁for	-8.46687
▁iline	-8.4677
▁geçir	-8.46843
▁ali	-8.46929
▁w	-8.47017
▁2004	-8.47026
▁spor	-8.47113
▁neden	-8.47171
▁et	-8.47179
ah	-8.47476
ey	-8.4754
▁hafta	-8.47783
ör	-8.47976
ot	-8.48034
ılır	-8.48325
▁günümüzde	-8.48535
land	-8.48631
▁geldi	-8.48823
lay	-8.48936
▁tarih	-8.49055
▁23	-8.49079
so	-8.49203
landı	-8.49258
sti	-8.49299
unun	-8.49358
▁beş	-8.49573
▁güç	-8.4961
▁resmi	-8.49692
▁verilen	-8.49846
▁transfer	-8.49889
▁ödülü	-8.49956
▁parça	-8.50131
▁kalan	-8.50183
▁başkanlığı	-8.50189
ev	-8.50278
evi	-8.50303
▁madde	-8.50483
▁adını	-8.50559
▁ju	-8.50618
▁itibaren	-8.50991
▁2016	-8.51319
▁deki	-8.51369
▁yapımı	-8.51422
▁düzen	-8.51434
▁ham	-8.51512
▁köye	-8.51708
▁çe	-8.51841
▁ünlü	-8.51855
masını	-8.51861
▁babası	-8.51915
▁askeri	-8.51948
leş	-8.51991
müştür	-8.52013
▁sak	-8.5204
tür	-8.52095
ılması	-8.52133
ner	-8.52208
▁arasındaki	-8.52305
▁ilçe	-8.52399
▁aday	-8.5252
luğu	-8.52534
▁türkçe	-8.52596
▁günü	-8.52638
▁bulunduğu	-8.53064
▁ilişki	-8.53083
▁rusya	-8.53135
▁es	-8.53152
tığı	-8.53203
▁albümü	-8.53254
▁av	-8.53261
lenen	-8.53286
▁dönemde	-8.53418
▁hemen	-8.53421
▁ada	-8.53439
▁sun	-8.53508
▁düş	-8.53617
▁durum	-8.53691
▁wi	-8.53824
▁kaç	-8.53992
▁geç	-8.5413
▁yahudi	-8.5422
larıyla	-8.5433
ngiltere	-8.54377
▁sanatçı	-8.54507
▁devletleri	-8.5453
▁yıllarda	-8.54538
▁erkek	-8.54598
▁partisi	-8.54636
▁sultan	-8.547
▁saat	-8.54774
sinden	-8.54785
▁j	-8.54871
▁yok	-8.54905
▁etme	-8.54977
lendi	-8.55069
▁uygulama	-8.5522
▁eş	-8.55326
lanır	-8.55435
ster	-8.55448
lin	-8.55482
▁za	-8.55492
mayı	-8.55564
ste	-8.55602
▁profesyonel	-8.55788
ladı	-8.5586
var	-8.55907
▁altın	-8.55936
leriyle	-8.56226
▁saldırı	-8.56291
per	-8.56311
▁değer	-8.56406
▁lu	-8.56419
▁taş	-8.56487
▁sat	-8.5657
▁isimli	-8.566
▁ser	-8.56686
ndaki	-8.56793
▁kent	-8.56848
▁kültür	-8.56862
lardır	-8.57253
▁almaktadır	-8.57272
▁aile	-8.57299
▁program	-8.57407
▁zi	-8.57415
ünü	-8.57772
▁der	-8.57777
▁okul	-8.58039
▁çalışma	-8.58042
lüğü	-8.58062
▁yap	-8.58236
▁st	-8.58254
ren	-8.58261
а	-8.58276
ek	-8.58287
ly	-8.58295
▁köydür	-8.58327
ia	-8.58329
sta	-8.58464
▁inşa	-8.5861
▁bırak	-8.58611
▁enerji	-8.58641
▁yıllarında	-8.58657
kü	-8.58951
ov	-8.5901
▁içerisinde	-8.59054
▁göç	-8.59106
▁metre	-8.59122
▁tespit	-8.59233
▁per	-8.59303
▁100	-8.59484
kar	-8.59647
▁pat	-8.59738
▁değil	-8.59861
dür	-8.59973
met	-8.60092
mparatorluğu	-8.60125
▁edilir	-8.60161
▁dağ	-8.60357
▁etmek	-8.60508
▁bile	-8.60566
▁yönetim	-8.60614
layan	-8.60639
▁koru	-8.60672
▁sinema	-8.60675
▁ilgi	-8.60773
ff	-8.6087
▁maçta	-8.60938
ası	-8.60994
shi	-8.61002
▁oranı	-8.61206
▁john	-8.61386
▁boş	-8.61397
ışı	-8.61442
▁bal	-8.61501
tur	-8.61517
▁aldığı	-8.61518
kları	-8.61546
mu	-8.61734
lanmış	-8.61772
▁yanında	-8.61974
▁am	-8.61986
▁çık	-8.62024
▁seçim	-8.62058
8	-8.62121
▁ab	-8.62241
▁yaşında	-8.62256
lanmıştır	-8.6241
▁2002	-8.62472
▁beri	-8.62507
▁başarı	-8.62699
▁roman	-8.62751
▁geçen	-8.62753
▁büyü	-8.62784
▁tanrı	-8.62862
▁27	-8.62878
▁temsil	-8.63068
makta	-8.63224
▁asker	-8.63322
▁numara	-8.63324
▁sü	-8.6377
gan	-8.6378
ron	-8.63866
leyen	-8.63897
▁seri	-8.6405
▁sonraki	-8.64062
▁göster	-8.64079
ılmıştır	-8.64109
▁formula	-8.64137
talya	-8.64142
▁kurulu	-8.64143
▁gir	-8.6436
▁ona	-8.64394
▁nowiki	-8.64395
▁bunlar	-8.64517
▁altı	-8.6457
lanma	-8.64865
▁yan	-8.6489
▁örnek	-8.65038
▁yarışma	-8.65164
▁mal	-8.65184
▁böylece	-8.65321
▁28	-8.65539
▁buna	-8.65589
ld	-8.65643
▁yüz	-8.65723
▁ettiği	-8.65822
res	-8.6583
▁tiyatro	-8.65862
▁boz	-8.65885
▁wa	-8.65932
▁kaldı	-8.66057
▁kuvvetleri	-8.66117
▁benzer	-8.66222
nd	-8.663
▁geldiği	-8.66318
ard	-8.66322
landır	-8.66336
ılmış	-8.6635
▁olay	-8.66416
▁kuş	-8.66431
▁olmayan	-8.66508
▁yerleşim	-8.66673
▁televizyon	-8.66745
▁hayvan	-8.6677
ngilizce	-8.66831
▁sahibi	-8.66878
▁alın	-8.66919
mb	-8.67095
▁gelenek	-8.67127
▁tan	-8.67186
ret	-8.67383
▁2001	-8.67384
▁filmi	-8.67403
▁final	-8.67607
inden	-8.67672
▁sosyal	-8.67702
▁yönünde	-8.67729
▁kullan	-8.67749
▁bulundu	-8.67831
▁futbolcudur	-8.67915
▁oynadı	-8.67982
▁th	-8.68034
▁ben	-8.68083
▁dönüş	-8.682
▁devleti	-8.68232
5	-8.6834
▁hukuk	-8.68696
slam	-8.68788
om	-8.68909
masına	-8.69082
▁gemi	-8.69231
▁2003	-8.69241
dar	-8.69294
▁sür	-8.69313
▁kullanılır	-8.69331
▁tanı	-8.69486
▁yaşayan	-8.69549
▁hak	-8.69557
liğini	-8.69657
▁örneğin	-8.69807
▁şeklinde	-8.69825
tin	-8.69871
▁taşı	-8.6992
▁sol	-8.70031
▁sonuç	-8.70183
ham	-8.70216
zo	-8.70321
şa	-8.7037
▁çal	-8.70413
▁üniversite	-8.70445
▁ter	-8.70552
iyor	-8.70907
las	-8.70977
▁öğrenci	-8.71062
▁liste	-8.71093
▁ber	-8.71317
op	-8.71526
▁oldukça	-8.71578
tif	-8.71628
▁mısır	-8.71806
▁ten	-8.71831
▁karakter	-8.71943
▁sta	-8.71999
▁kurulan	-8.721
▁ayında	-8.72212
▁şirket	-8.72402
▁yarat	-8.726
▁üyesi	-8.72634
▁yardım	-8.72639
▁toprak	-8.72724
▁gerek	-8.72797
ji	-8.72815
▁imza	-8.72872
▁isim	-8.72895
up	-8.7297
▁çö	-8.73003
▁haber	-8.73021
▁oluş	-8.7303
▁model	-8.73059
▁adet	-8.73299
▁em	-8.73464
▁anlat	-8.73476
▁iklim	-8.73509
bil	-8.73611
▁maçı	-8.73725
▁yara	-8.73735
ık	-8.73809
▁kitabı	-8.73949
▁nokta	-8.74039
▁tip	-8.74076
▁adam	-8.74148
vo	-8.74163
▁bor	-8.74178
▁video	-8.74271
▁50	-8.74352
▁şirketi	-8.74464
he	-8.74465
▁tipi	-8.74535
müş	-8.74575
nt	-8.74592
acağı	-8.74664
▁fakültesi	-8.74992
▁cha	-8.75155
▁başında	-8.75202
▁kuvvet	-8.7531
ünün	-8.75351
tt	-8.75378
▁uzay	-8.75397
▁bay	-8.75449
▁güzel	-8.756
▁karadeniz	-8.7571
▁merkezine	-8.75832
▁zor	-8.75832
▁ş	-8.75888
lak	-8.76006
▁cm	-8.76051
▁yaygın	-8.76138
maz	-8.76175
▁başarılı	-8.76196
▁geçti	-8.7624
▁29	-8.76339
lamıştır	-8.76357
ow	-8.76439
▁kale	-8.76446
ger	-8.76616
esi	-8.7669
▁afrika	-8.76712
▁is	-8.76769
á	-8.76822
▁çevre	-8.7683
una	-8.7697
▁yüzyıl	-8.77067
▁köyü	-8.77089
▁car	-8.77261
▁sık	-8.77401
▁fer	-8.7746
ilir	-8.77494
▁giy	-8.77507
ından	-8.77574
gü	-8.77678
▁1990	-8.77683
mekte	-8.77746
ledi	-8.77746
▁can	-8.77857
▁konser	-8.77964
▁ortak	-8.77987
6	-8.7805
tiği	-8.7808
▁bel	-8.78208
yor	-8.78398
köy	-8.78491
▁şi	-8.78572
▁tar	-8.78705
▁mahalledir	-8.78783
lenme	-8.78823
▁yolu	-8.78854
lek	-8.78896
▁filmin	-8.78908
tar	-8.78923
ven	-8.78945
rken	-8.78972
▁silah	-8.79335
chi	-8.79534
ova	-8.79595
▁biridir	-8.79747
▁katıldı	-8.79849
▁gece	-8.79917
▁par	-8.79951
▁dır	-8.80012
▁şah	-8.80058
imi	-8.80112
▁we	-8.80118
▁grubun	-8.80188
kı	-8.8027
▁kor	-8.80291
che	-8.80324
▁iddia	-8.80438
tal	-8.80477
▁31	-8.80485
▁yani	-8.8049
tro	-8.80493
▁fu	-8.80523
▁girdi	-8.80611
▁dr	-8.80645
▁başlamıştır	-8.80653
▁şiir	-8.80687
▁kü	-8.80749
tor	-8.80799
▁sezonu	-8.8095
burg	-8.80993
lanması	-8.81156
od	-8.81168
▁yerel	-8.81267
▁yoğun	-8.81309
▁ülkenin	-8.81363
▁mezun	-8.81573
▁y	-8.81616
▁söyle	-8.81671
▁eser	-8.81754
▁yüzyılda	-8.81772
▁idi	-8.81777
▁tut	-8.81785
▁yıllık	-8.81855
asyon	-8.82123
▁paris	-8.82266
▁yük	-8.8229
sk	-8.82384
▁düz	-8.82407
▁motor	-8.82543
▁40	-8.8262
lem	-8.82691
▁bölgesinde	-8.82801
▁dikkat	-8.82812
▁ste	-8.82904
▁dış	-8.82904
▁başlayan	-8.82997
▁bölgede	-8.83084
▁dön	-8.83127
▁hiçbir	-8.83157
▁değildir	-8.83164
▁süper	-8.83173
mıştı	-8.83368
▁suç	-8.8349
▁bak	-8.83511
▁sarı	-8.83584
can	-8.8359
▁araç	-8.8361
din	-8.8364
▁futbolcu	-8.83667
▁ödül	-8.83691
▁kış	-8.83856
▁başlar	-8.83933
dy	-8.83945
lenmiştir	-8.83978
▁sayıda	-8.8398
▁kayıt	-8.8399
▁sınıf	-8.84066
az	-8.84236
▁işlem	-8.8436
▁boy	-8.84441
▁demir	-8.84485
▁turnuva	-8.84535
rı	-8.84598
ıyor	-8.84986
▁giriş	-8.8504
gra	-8.85059
oloji	-8.85246
▁uyar	-8.85256
san	-8.85287
▁ata	-8.85302
▁yerli	-8.85447
▁uygun	-8.85461
▁herhangi	-8.85503
▁baskı	-8.85518
▁kol	-8.85566
▁kulübü	-8.85724
▁sar	-8.8573
▁com	-8.85848
▁çalış	-8.85907
nes	-8.85999
siyle	-8.86003
▁saha	-8.86131
▁br	-8.86207
▁güçlü	-8.86338
▁kom	-8.86437
ğe	-8.8651
▁gra	-8.86601
▁etmektedir	-8.86687
▁1999	-8.86702
▁kısmı	-8.86741
▁sınır	-8.86807
▁güneş	-8.86817
rak	-8.86819
▁itibarıyla	-8.87022
iyordu	-8.87131
▁bakanlığı	-8.87231
▁ça	-8.87295
▁puan	-8.87364
▁üret	-8.87467
▁annesi	-8.87486
iyle	-8.87497
▁şarkıcı	-8.87509
▁kızı	-8.87533
duğu	-8.87662
til	-8.8769
yum	-8.87753
▁ticaret	-8.878
▁hal	-8.87941
▁tor	-8.88121
▁şehri	-8.8814
▁pu	-8.8828
lendiril	-8.88417
les	-8.88421
▁sürdür	-8.88454
▁mor	-8.88494
▁kardeşi	-8.88513
iyet	-8.88606
▁sovyet	-8.8863
▁olmuş	-8.88667
hane	-8.88775
lerdir	-8.88859
ja	-8.88984
▁z	-8.88999
▁ateş	-8.89013
▁orman	-8.89099
▁2017	-8.89165
▁diye	-8.89299
▁açı	-8.89498
▁kut	-8.89559
mar	-8.89571
▁taraf	-8.89613
▁tra	-8.89643
▁sergi	-8.89656
ağa	-8.89658
syon	-8.89694
lla	-8.89752
▁pla	-8.89782
▁kral	-8.89859
▁modern	-8.8987
ker	-8.89935
▁kı	-8.89951
▁bugün	-8.89979
▁düzenlenen	-8.90066
4	-8.90108
▁nehri	-8.90114
nik	-8.90253
▁kes	-8.90279
▁karasal	-8.90316
▁ru	-8.90325
▁1980	-8.90423
▁haline	-8.90483
ladığı	-8.90557
▁güven	-8.90819
▁parçası	-8.90823
düğü	-8.90866
yü	-8.90904
je	-8.91289
▁yarış	-8.91311
rü	-8.91322
▁kurulmuştur	-8.91411
▁nden	-8.91549
▁evli	-8.91581
sar	-8.9161
▁ala	-8.91667
▁bilin	-8.91961
▁sonrasında	-8.91993
▁konusunda	-8.91998
▁mö	-8.92041
▁ilan	-8.92338
yen	-8.92384
▁göl	-8.92491
▁türü	-8.92533
par	-8.92543
▁kendisi	-8.92638
▁york	-8.92672
▁cumhuriyet	-8.92677
▁proje	-8.92727
tim	-8.92749
ildi	-8.92762
▁çalıştı	-8.92829
▁ağır	-8.92855
▁ch	-8.93016
▁bulun	-8.93178
ban	-8.93254
▁başına	-8.93288
▁hale	-8.93346
▁bizans	-8.93402
▁yarışması	-8.93489
▁japon	-8.93491
▁sonucunda	-8.93508
▁döndü	-8.93511
▁con	-8.93522
▁hücre	-8.93643
▁şampiyonası	-8.93717
ks	-8.93778
▁engel	-8.93829
▁eyaletinde	-8.93883
spanya	-8.939
▁gelişme	-8.94026
ıyla	-8.94075
▁ölüm	-8.94093
leşti	-8.94108
▁hat	-8.94112
kinci	-8.94188
▁yılından	-8.94232
▁çalışan	-8.94262
о	-8.94267
▁madalya	-8.94459
▁serbest	-8.94468
▁defa	-8.94501
lenir	-8.94519
mez	-8.94808
▁çi	-8.94915
▁bul	-8.94945
▁kadro	-8.9495
▁galaksidir	-8.94954
▁azal	-8.94982
▁kasaba	-8.9502
▁bilgisayar	-8.95097
que	-8.95195
▁yasa	-8.95251
▁dağı	-8.95375
▁radyo	-8.95422
▁derece	-8.95423
▁bes	-8.95572
▁gök	-8.95794
▁1998	-8.95864
▁gre	-8.95948
▁programı	-8.95959
▁önceki	-8.95993
50	-8.96182
▁yo	-8.96296
▁bağımsız	-8.96316
rek	-8.96474
▁1992	-8.96521
▁bunu	-8.96536
▁olabilir	-8.96607
nü	-8.96706
▁dili	-8.9693
▁yılına	-8.96942
ight	-8.96952
▁amacıyla	-8.96984
▁bitki	-8.97046
▁eseri	-8.97188
▁bina	-8.97276
▁savunma	-8.97366
▁getir	-8.97377
▁cu	-8.97383
▁dayan	-8.97423
eceği	-8.97446
tra	-8.97529
srail	-8.97671
▁kulüp	-8.97711
▁çünkü	-8.97791
▁sene	-8.97884
▁öğren	-8.97905
▁bağlantı	-8.97972
lıdır	-8.98003
▁nu	-8.98071
▁koy	-8.98125
tma	-8.98162
▁ince	-8.98264
işi	-8.98318
ral	-8.9833
▁dü	-8.98393
▁kızıl	-8.98478
▁kontrol	-8.98485
▁üye	-8.98529
▁ger	-8.98531
▁kralı	-8.98713
zı	-8.98794
ilen	-8.98848
zar	-8.99081
▁çizgi	-8.9927
▁1997	-8.99303
ilmiş	-8.99323
liğe	-8.99335
▁doğal	-8.99408
▁amerikalı	-8.99512
▁gönder	-8.99556
▁tv	-8.99684
▁inan	-8.99727
▁kalma	-8.99776
▁kötü	-8.99793
▁mahalleye	-8.99812
▁gazete	-8.99985
ımı	-9.00071
▁sev	-9.0016
▁yunan	-9.0037
▁hayat	-9.00385
yordu	-9.00425
▁arazi	-9.00459
▁basketbol	-9.00541
▁değiş	-9.00589
▁çalışmaları	-9.00603
zmir	-9.00638
idir	-9.0064
▁ortalama	-9.00696
▁oran	-9.00844
▁meydana	-9.00902
▁renk	-9.01118
▁arap	-9.01159
▁hedef	-9.01215
sidir	-9.01283
miz	-9.01567
▁1996	-9.01766
mişti	-9.01768
▁stüdyo	-9.01827
▁krallık	-9.01857
▁konuş	-9.01902
▁maçında	-9.02016
▁siyasi	-9.02104
talyan	-9.02111
▁eyaleti	-9.0214
▁teknoloji	-9.02174
▁faaliyet	-9.02183
▁kim	-9.02344
▁veren	-9.02387
zu	-9.02488
▁1995	-9.02624
▁edilmiş	-9.02657
▁tepe	-9.02676
cılık	-9.02733
lığa	-9.02801
▁yayıl	-9.02839
▁yorum	-9.02922
▁sebep	-9.02923
▁sefer	-9.03135
ius	-9.03174
▁astronom	-9.03226
▁eğer	-9.03254
ınca	-9.03256
▁kav	-9.03336
sin	-9.03434
▁politika	-9.03461
ris	-9.03483
▁tri	-9.03531
▁mustafa	-9.03626
lis	-9.03628
▁zorunda	-9.03731
▁ekonomik	-9.03753
net	-9.03757
▁düzey	-9.03781
▁yana	-9.0379
▁1993	-9.03876
▁dergi	-9.03896
û	-9.03913
▁rock	-9.04017
▁olsa	-9.04063
▁ailesi	-9.04141
▁1994	-9.04182
bet	-9.04243
▁dünyanın	-9.04248
▁pazar	-9.04256
ıdır	-9.04257
▁william	-9.04393
hu	-9.04445
▁müziği	-9.04506
▁şampiyon	-9.04507
▁ngc	-9.04533
▁taşımalı	-9.04631
ie	-9.04686
▁yapmış	-9.04703
sıyla	-9.04824
▁verdiği	-9.0489
▁sch	-9.04914
ğü	-9.05009
▁öğretmen	-9.05019
▁1991	-9.05039
▁mehmet	-9.05069
▁şarkısı	-9.05091
▁verir	-9.05091
lenmiş	-9.05149
▁direktör	-9.05166
lamak	-9.05227
▁görüntü	-9.0535
▁metal	-9.05453
▁kendisine	-9.05571
▁değişik	-9.05576
▁pan	-9.05605
▁gaz	-9.0561
▁hayatını	-9.05631
▁görüş	-9.05903
▁mahallesi	-9.05972
▁ceza	-9.06058
mı	-9.06082
▁yönetimi	-9.06102
▁yazarı	-9.0611
▁vardı	-9.0618
▁verildi	-9.06354
▁durumu	-9.06544
if	-9.06599
▁ağ	-9.06624
▁aşağıdaki	-9.06624
eri	-9.06706
▁çıkış	-9.06734
▁yapılmıştır	-9.06741
▁avusturya	-9.06789
▁kariyerine	-9.06841
uk	-9.06845
▁kullanıl	-9.06921
▁hali	-9.06937
▁hü	-9.06998
suz	-9.07062
▁prens	-9.07087
▁yaşam	-9.07115
▁gözlem	-9.07143
▁anlamına	-9.07159
▁gen	-9.07177
▁düşünü	-9.07189
▁kaza	-9.0722
▁etkisi	-9.07332
▁düşük	-9.07493
▁seç	-9.07572
▁1970	-9.07717
başı	-9.07806
▁yen	-9.07913
▁içer	-9.07919
▁resim	-9.07952
eli	-9.08052
▁gar	-9.08064
lılar	-9.08121
▁görenek	-9.08274
▁mat	-9.08305
bur	-9.08347
▁tamamen	-9.08381
▁ederek	-9.08411
▁artık	-9.08468
lidir	-9.0847
▁düşünce	-9.0847
▁edil	-9.08587
aj	-9.08604
▁gör	-9.08643
▁dalga	-9.08779
▁kullanıcı	-9.08784
▁oluştuğu	-9.08789
lığını	-9.08867
gin	-9.08872
▁getiril	-9.08985
▁portekiz	-9.09003
▁geliştir	-9.09003
▁gerçekleştir	-9.09245
▁karşısında	-9.09319
▁pre	-9.094
liğin	-9.09406
▁japonya	-9.09495
mesine	-9.09575
▁kaya	-9.09634
▁söylen	-9.09675
▁bra	-9.09734
▁galatasaray	-9.09792
we	-9.0988
▁yönetmen	-9.09893
▁arka	-9.099
▁kolay	-9.09993
▁kore	-9.10038
▁kesin	-9.10052
▁adının	-9.10294
▁üzerinden	-9.10371
ktör	-9.10435
ers	-9.10463
▁yön	-9.10523
▁izle	-9.1057
▁yayınlanan	-9.10742
çu	-9.10746
▁yeşil	-9.10753
▁yemekleri	-9.10813
ina	-9.10862
▁bat	-9.10879
и	-9.10936
ğa	-9.11052
▁yak	-9.11089
ıyordu	-9.11099
▁başkenti	-9.11192
▁yapar	-9.11208
▁adında	-9.11208
▁şehirdir	-9.11365
▁hay	-9.11388
leşme	-9.11445
teki	-9.11485
▁yedi	-9.11525
lli	-9.11586
▁doğdu	-9.11717
don	-9.11733
wi	-9.11804
meyen	-9.11808
io	-9.11857
▁orada	-9.11884
▁bilinir	-9.12041
zan	-9.12071
▁londra	-9.12115
▁eğ	-9.1243
▁uygulan	-9.12447
▁canlandır	-9.12475
▁kö	-9.12492
mesini	-9.12516
▁bek	-9.12518
▁cami	-9.1252
▁öne	-9.12547
mışlardır	-9.12574
lenmesi	-9.12687
istan	-9.12731
▁fre	-9.12777
▁müslüman	-9.12804
▁etmiş	-9.12865
amadı	-9.12905
▁gü	-9.12955
▁piyasaya	-9.13
▁sı	-9.13016
▁seçildi	-9.1309
▁ermeni	-9.1309
▁van	-9.13169
▁olmasına	-9.1326
▁değiştir	-9.13276
▁dönemin	-9.13285
dığını	-9.13329
tti	-9.13382
ünde	-9.13394
ou	-9.13503
▁1960	-9.13788
▁sanayi	-9.1383
▁yardımcı	-9.1386
ilmiştir	-9.1391
▁takımyıldızı	-9.13962
▁ülkede	-9.1408
▁açıklama	-9.14094
▁çocuğu	-9.14174
▁tü	-9.14192
▁yüzey	-9.1428
▁özellikleri	-9.14301
▁belirti	-9.14469
▁kategori	-9.14621
masıyla	-9.14678
▁anda	-9.14697
▁single	-9.14731
▁hiç	-9.1478
▁kanada	-9.14816
▁aydın	-9.14819
cak	-9.14834
▁başkan	-9.14852
▁çağ	-9.1488
▁kıyı	-9.15135
▁uzak	-9.15223
maktaydı	-9.15261
▁önem	-9.15269
▁halinde	-9.154
gh	-9.15491
▁mil	-9.15491
▁sin	-9.15494
▁sürü	-9.15529
▁canlı	-9.15619
▁ruh	-9.15651
▁düşün	-9.15691
▁kırmızı	-9.15693
▁pri	-9.15811
tre	-9.15812
▁iken	-9.15866
▁oluşur	-9.15971
▁normal	-9.16019
▁devre	-9.16024
ft	-9.16042
▁sürekli	-9.16062
▁gül	-9.16132
ud	-9.16232
▁yüksel	-9.16255
▁1989	-9.16257
▁vol	-9.16289
▁durumda	-9.16317
▁ilçesinde	-9.16424
▁saf	-9.16482
bin	-9.16599
em	-9.16601
▁dizisi	-9.16609
ğu	-9.16626
▁hızlı	-9.16635
▁af	-9.16665
cü	-9.16744
und	-9.16818
0	-9.1682
lma	-9.16844
▁üyeleri	-9.16877
▁ziyaret	-9.16984
▁don	-9.17025
▁kaynağı	-9.17046
▁asya	-9.17081
▁bölümünde	-9.17093
▁kendini	-9.17104
▁sayımın	-9.17113
▁arası	-9.17138
▁doğa	-9.17165
▁yöre	-9.17238
ab	-9.17326
▁izin	-9.17348
▁hollanda	-9.17466
▁görün	-9.17532
ct	-9.17558
ts	-9.17638
▁alanında	-9.17673
▁tahmin	-9.17759
▁sayesinde	-9.17774
▁lik	-9.17828
▁fenerbahçe	-9.17828
▁oyunu	-9.17831
▁dö	-9.1796
▁koruma	-9.17996
▁yönet	-9.18015
dd	-9.18053
▁bursa	-9.18097
▁bunların	-9.18203
▁zengin	-9.1837
▁kurum	-9.18545
▁avustralya	-9.18557
▁yöntem	-9.18564
ılmaktadır	-9.1857
dıkları	-9.18655
▁eşi	-9.18655
▁hükümet	-9.18675
▁konusu	-9.18755
▁sınırları	-9.18794
▁eğitimden	-9.18814
▁ver	-9.18834
е	-9.18935
oz	-9.19016
▁yaşan	-9.19084
dor	-9.19144
▁yalnızca	-9.19217
▁siyah	-9.19252
▁geçmiş	-9.19438
▁kuzeyinde	-9.19442
ski	-9.19464
berg	-9.19466
acağını	-9.19585
nca	-9.19638
mız	-9.19638
▁düzenlen	-9.19649
▁keşfedilmiştir	-9.19698
▁yağ	-9.19724
▁alma	-9.19741
▁fark	-9.19748
▁alarak	-9.1975
▁barış	-9.19757
▁sen	-9.19808
fer	-9.1991
▁kazanan	-9.19975
▁ac	-9.19989
▁başta	-9.20121
▁iz	-9.20123
▁kanal	-9.20144
▁sona	-9.20168
▁yabancı	-9.20224
10	-9.20249
▁tim	-9.2029
▁yurt	-9.20296
▁baba	-9.2036
▁nor	-9.20398
▁hükümeti	-9.20413
▁gö	-9.20422
▁polis	-9.20422
▁çaplı	-9.20434
▁kurdu	-9.20514
▁geçmişi	-9.20518
▁azerbaycan	-9.20529
taş	-9.20586
▁bro	-9.20603
▁gal	-9.20612
tes	-9.20639
▁ışık	-9.20685
▁toplum	-9.2069
sveç	-9.20725
diğini	-9.20735
▁hatta	-9.20779
▁mevcuttur	-9.20784
lme	-9.20813
▁arkadaşı	-9.20942
▁hakkı	-9.21005
▁60	-9.21018
▁kilise	-9.21042
lâ	-9.21097
▁edilmesi	-9.21098
▁sey	-9.21125
▁ölçü	-9.21158
▁q	-9.21159
▁sha	-9.21166
ian	-9.212
▁oku	-9.21211
▁ok	-9.21285
isi	-9.21327
▁men	-9.21438
▁nedenle	-9.21446
▁yılının	-9.21449
sto	-9.2148
▁uç	-9.21494
ph	-9.21576
rarlanılmaktadır	-9.21643
▁mahalle	-9.21655
▁oynanan	-9.21676
ğını	-9.21835
▁gitti	-9.21977
▁dakika	-9.2202
lim	-9.2215
▁uçak	-9.2215
▁gücü	-9.22372
the	-9.22399
dil	-9.22414
▁akdeniz	-9.22586
▁öldür	-9.22628
▁sam	-9.22658
▁albümün	-9.22695
▁kurulmuş	-9.22718
▁rum	-9.22742
▁ağaç	-9.22758
stan	-9.22767
▁bah	-9.22806
▁dik	-9.22871
spanyol	-9.22922
▁yıllar	-9.22951
▁gelmiştir	-9.2296
▁opera	-9.23131
▁edebiyat	-9.23181
▁amaç	-9.23259
▁listesi	-9.23352
▁geleneksel	-9.23386
▁yazdığı	-9.23447
▁suriye	-9.23563
▁otur	-9.23652
▁sonuçlar	-9.23715
▁sorumlu	-9.23749
▁üretimi	-9.23778
▁sto	-9.23795
▁lisesi	-9.23901
nci	-9.23917
▁1988	-9.2402
▁eşit	-9.24022
▁kazanmıştır	-9.24044
▁lisans	-9.24099
▁halkı	-9.24192
▁antik	-9.24346
▁mah	-9.24439
▁hikâye	-9.24476
▁milletvekili	-9.24509
▁duyu	-9.24519
▁fotoğraf	-9.24568
▁dördüncü	-9.24875
▁yapıldı	-9.24898
▁kri	-9.24919
▁organ	-9.25019
▁park	-9.25039
▁öğretim	-9.25077
▁pop	-9.25127
sıdır	-9.25174
▁kupa	-9.25255
▁üretim	-9.25268
ment	-9.25283
▁kardeş	-9.25362
60	-9.25375
ğında	-9.25403
▁fc	-9.25425
▁doktor	-9.25467
▁yürü	-9.25499
▁80	-9.25555
▁yapıl	-9.25767
mişlerdir	-9.25803
▁edilmektedir	-9.26144
▁tane	-9.26253
▁mak	-9.26321
▁hız	-9.26375
▁özelliği	-9.264
▁adına	-9.26413
▁dünyaya	-9.2643
▁etmesi	-9.26565
▁windows	-9.26615
▁çiz	-9.26627
▁dönemi	-9.26658
▁yayınlandı	-9.2674
▁you	-9.2683
▁oyuncusu	-9.26856
▁ahmet	-9.26957
▁port	-9.27024
q	-9.27056
▁dergisi	-9.27261
▁filmde	-9.27292
laşma	-9.2731
▁klasik	-9.27339
▁emir	-9.27367
zer	-9.27386
▁yetki	-9.27531
▁anti	-9.27544
sü	-9.27606
▁ödülleri	-9.27731
dikleri	-9.27749
▁anlaşma	-9.27769
▁kaybetti	-9.27777
▁min	-9.27791
vin	-9.27803
▁general	-9.27864
▁adamı	-9.27865
▁görevi	-9.27898
▁kas	-9.27956
▁ayrıldı	-9.28008
nün	-9.28016
▁dar	-9.2811
▁1986	-9.28159
▁papa	-9.28197
▁yaşa	-9.28304
▁üstün	-9.28335
▁belli	-9.28348
▁meclis	-9.28369
lediği	-9.28421
▁1987	-9.28475
▁kelime	-9.28536
▁kök	-9.28571
▁felsefe	-9.28631
ilmesi	-9.28632
▁kuruluş	-9.28893
▁katılım	-9.28942
▁kanun	-9.2895
▁mezar	-9.28983
▁kesim	-9.28998
har	-9.29006
madan	-9.29042
kleri	-9.29143
▁türkmen	-9.29159
▁yapmak	-9.29194
▁paylaş	-9.29235
▁inç	-9.29243
▁çıkmıştır	-9.29307
▁anlaşıl	-9.29316
▁yılın	-9.2939
▁taşın	-9.29402
sından	-9.29424
н	-9.29443
▁koyu	-9.29453
ram	-9.29537
▁gösterir	-9.29643
mini	-9.29725
▁eğitimi	-9.29769
kle	-9.2979
▁çalışmalar	-9.29875
▁ayak	-9.29885
▁takip	-9.29908
▁karşılaşma	-9.2994
▁nı	-9.29945
▁belirlen	-9.2998
bol	-9.30011
▁popüler	-9.30015
ا	-9.30126
▁katalog	-9.30213
▁yeri	-9.30278
ince	-9.30321
tion	-9.30388
▁yapmaktadır	-9.30468
▁siyasetçi	-9.30488
▁atı	-9.30501
▁90	-9.30549
▁karşılık	-9.30558
▁mas	-9.30649
▁mus	-9.30672
acaktır	-9.30692
▁kemer	-9.30725
▁ndan	-9.30775
▁mevcut	-9.30957
▁tamamladı	-9.31067
ó	-9.31089
▁başlamış	-9.31101
mik	-9.31104
▁gider	-9.31172
▁cor	-9.31329
rit	-9.31332
▁hala	-9.31392
▁tıp	-9.31415
▁derin	-9.31431
pu	-9.31451
р	-9.3148
▁anlam	-9.31577
▁görme	-9.31641
▁yüzölçümü	-9.31666
▁olmadığı	-9.31681
▁içeren	-9.31706
fo	-9.3181
▁gökyüzünde	-9.31863
▁shi	-9.31926
ize	-9.3195
▁beste	-9.32018
▁hasta	-9.32018
▁düşman	-9.32046
ice	-9.32099
▁katılma	-9.3231
ney	-9.32317
▁insanlar	-9.32319
▁genelde	-9.32366
hat	-9.32373
▁attı	-9.32374
▁takımında	-9.32419
▁sovyetler	-9.32439
▁aracı	-9.32448
▁gelmektedir	-9.32521
hal	-9.32634
▁birlikleri	-9.32672
▁polonya	-9.32814
▁ders	-9.32892
▁yönetici	-9.32892
▁duvar	-9.32898
▁200	-9.32985
▁kamp	-9.33043
▁bundan	-9.33274
▁hâl	-9.33335
▁başbakan	-9.3336
▁nü	-9.33369
istik	-9.33381
▁nüfusunun	-9.33484
▁krallığı	-9.33506
▁milli	-9.33536
▁birim	-9.33553
▁hane	-9.33592
▁taşıyan	-9.33652
▁yazılım	-9.33711
▁güneyinde	-9.33718
▁saray	-9.33784
▁finalde	-9.33817
ble	-9.33827
▁mon	-9.3392
meyi	-9.33936
▁yapılır	-9.33936
▁sap	-9.33971
▁çekim	-9.34004
▁aşama	-9.34016
▁üyeliği	-9.34019
▁ısı	-9.34064
▁hel	-9.34103
▁1985	-9.34164
▁yolcu	-9.3419
▁tutu	-9.34208
í	-9.3427
▁gerçekleştiril	-9.34274
▁geçer	-9.34284
ther	-9.34308
▁performans	-9.34314
▁hastalık	-9.34342
▁öldü	-9.34355
▁sonrası	-9.34507
▁görülür	-9.3466
▁tank	-9.34673
▁atan	-9.34694
mekteydi	-9.3471
▁verilmiştir	-9.34753
gar	-9.34838
▁1982	-9.34881
▁1984	-9.34951
▁şekil	-9.34953
▁teleskopla	-9.34975
▁şampiyonluğu	-9.35018
▁kira	-9.35042
▁malzeme	-9.35066
bey	-9.35144
▁vatandaş	-9.35182
eceğini	-9.35196
▁eserleri	-9.35217
▁yapısı	-9.35227
▁kıbrıs	-9.35313
▁evren	-9.35331
ny	-9.35367
▁verme	-9.35414
▁teori	-9.35434
▁yunanistan	-9.35434
▁takımın	-9.3549
▁sp	-9.35544
▁britanya	-9.35615
▁serisi	-9.35683
▁konuşma	-9.35811
ent	-9.35916
▁belediyesi	-9.35969
▁ilçesi	-9.36061
▁arada	-9.36123
▁üretil	-9.36126
▁yapma	-9.36158
▁eurovision	-9.36182
▁ürün	-9.36194
▁katıl	-9.36197
▁tartışma	-9.36265
▁doğan	-9.36275
▁sorun	-9.36313
bb	-9.36368
▁kendisini	-9.36441
▁örgüt	-9.36458
▁başlat	-9.36507
yar	-9.36679
▁bri	-9.36706
▁deney	-9.36734
▁akademi	-9.36808
▁sözleşme	-9.36831
▁kişilik	-9.36846
▁hareketi	-9.36853
▁asıl	-9.3688
ria	-9.36885
▁mc	-9.36887
▁vur	-9.36973
▁görevini	-9.36991
▁dışı	-9.37022
▁bazen	-9.37042
▁boyu	-9.37048
▁70	-9.37064
▁halen	-9.37067
ecektir	-9.37198
▁aslında	-9.37249
▁kemal	-9.37298
▁spe	-9.37312
▁oynan	-9.37328
▁kuruldu	-9.37404
▁kadınlar	-9.37468
▁tamamlan	-9.3754
▁bekle	-9.37547
▁tel	-9.37553
sch	-9.37623
▁güvenlik	-9.37637
▁ölümü	-9.37671
▁mes	-9.37688
▁bakanı	-9.37717
▁sırasıyla	-9.37745
▁tedavi	-9.37746
▁mag	-9.37809
▁belge	-9.37877
▁yapımcı	-9.37921
▁şöyle	-9.38052
▁dolayısıyla	-9.3807
▁iii	-9.38085
▁süreci	-9.38096
▁hakim	-9.38125
gun	-9.38176
▁almış	-9.38347
bri	-9.38351
▁çatışma	-9.38356
rin	-9.38378
▁kamu	-9.38388
▁kir	-9.38451
▁gümüş	-9.38455
▁ayır	-9.38465
leyici	-9.38478
▁beşiktaş	-9.38484
▁festivali	-9.38488
▁lise	-9.38489
▁1983	-9.38535
▁mac	-9.38554
▁yapılmış	-9.38561
▁sur	-9.38654
ırlar	-9.38741
▁33	-9.38765
▁fizik	-9.3882
▁oda	-9.38855
ap	-9.38982
▁gizli	-9.39007
▁rolü	-9.39083
▁gerçekleş	-9.39083
▁paul	-9.39088
layarak	-9.3914
▁gerekli	-9.39189
▁kütle	-9.39228
▁işgal	-9.39231
▁kapat	-9.39305
▁not	-9.39323
▁mem	-9.3941
▁seçimleri	-9.39459
▁tasarım	-9.3947
▁uefa	-9.3948
▁yüzden	-9.39486
üsü	-9.39508
▁standart	-9.39518
▁amacı	-9.3955
lon	-9.39564
▁terk	-9.3965
▁red	-9.39758
▁kısım	-9.39769
▁1950	-9.39775
▁bahçe	-9.3982
▁tablo	-9.39835
▁cihaz	-9.39835
▁wh	-9.3984
ino	-9.39852
▁söyledi	-9.39886
▁şair	-9.39893
▁sc	-9.39894
▁eyalet	-9.39904
▁söyler	-9.39946
▁internet	-9.39969
▁vermiştir	-9.39998
▁kararı	-9.40018
abilecek	-9.40021
gon	-9.40033
▁bulunma	-9.40039
▁müdürlüğü	-9.4004
▁anne	-9.40066
▁yaşadığı	-9.40151
▁gösteren	-9.40193
▁gitme	-9.40376
▁yapılmaktadır	-9.40406
liğine	-9.40464
lip	-9.40477
▁au	-9.40481
mal	-9.40508
▁çevril	-9.40536
taki	-9.40562
tepe	-9.40577
▁robert	-9.40599
▁kürt	-9.40666
▁ileri	-9.40756
▁nereden	-9.40856
▁geçiş	-9.40866
af	-9.40972
▁şiddet	-9.40992
ez	-9.41045
▁öldürül	-9.41064
▁uzman	-9.4108
▁oldukları	-9.41086
▁rast	-9.41279
nsan	-9.4131
▁başar	-9.41314
▁aşağı	-9.41335
atör	-9.41342
30	-9.41355
▁karış	-9.41452
▁şehrinde	-9.41453
▁osman	-9.41497
▁komünist	-9.41507
▁kurucu	-9.41533
▁denir	-9.41538
▁doku	-9.41608
▁altına	-9.41631
▁bü	-9.41678
▁sivas	-9.41701
▁yerini	-9.41796
olog	-9.41824
▁matematik	-9.41955
▁michael	-9.41955
▁doğum	-9.41967
▁üzerindeki	-9.42054
▁albümde	-9.42072
▁brezilya	-9.42193
▁korku	-9.42214
▁berlin	-9.42309
▁samsun	-9.42314
▁blo	-9.42347
▁500	-9.42375
▁mark	-9.42425
▁tercih	-9.42447
▁işaret	-9.42561
sp	-9.42576
ion	-9.42645
▁wal	-9.42701
09	-9.42702
▁başrol	-9.42715
ucu	-9.42916
tic	-9.42963
▁47	-9.42963
▁pra	-9.4298
ıldığı	-9.43011
▁chi	-9.43021
85	-9.43029
tis	-9.43052
gı	-9.43109
▁kullanma	-9.43163
с	-9.43252
cik	-9.43267
▁işçi	-9.43362
▁web	-9.43479
▁35	-9.43481
▁toprakları	-9.43502
▁değişim	-9.43513
▁efendi	-9.43537
mesiyle	-9.43584
▁belirli	-9.43645
▁bulunmuştur	-9.43822
▁kapı	-9.43907
▁noktası	-9.43976
▁aşk	-9.44034
olojik	-9.44038
ğinde	-9.44139
▁katkı	-9.44149
bar	-9.44312
▁makine	-9.44362
▁yapım	-9.44382
▁kaldır	-9.44476
▁yemek	-9.4448
▁hindistan	-9.44481
▁ölü	-9.44481
▁oyunları	-9.44492
▁yüzyılın	-9.4451
▁star	-9.44581
▁peter	-9.44617
▁geçirdi	-9.44732
bel	-9.44809
▁modeli	-9.44855
▁ex	-9.44868
▁çalışır	-9.44916
asyonu	-9.44917
▁uygu	-9.44942
▁sonradan	-9.45134
▁açısından	-9.45321
▁hattı	-9.45322
▁eleştiri	-9.45464
▁yönelik	-9.45467
▁hayatı	-9.45493
▁1979	-9.45509
▁bol	-9.45646
▁enstitüsü	-9.45763
▁mesafe	-9.45769
sko	-9.45797
▁anayasa	-9.45804
▁kariyeri	-9.45876
lığın	-9.45896
▁oynadığı	-9.46117
▁ton	-9.46133
▁orijinal	-9.46265
▁hükümdar	-9.46281
▁sağlar	-9.46296
▁soy	-9.46403
▁kişinin	-9.46418
▁kendine	-9.46471
▁zarar	-9.46488
▁etmeye	-9.46538
▁edin	-9.46566
leştirme	-9.46567
▁oluşmaktadır	-9.46648
▁kullanımı	-9.46654
40	-9.46656
▁bununla	-9.46673
▁gölü	-9.46727
▁yazdı	-9.46779
▁isyan	-9.46794
▁kalın	-9.46811
▁satın	-9.4685
▁gördü	-9.46892
▁sosyalist	-9.46998
▁hata	-9.47019
▁james	-9.47207
▁sert	-9.47249
▁kullanım	-9.47251
▁boyut	-9.47313
▁eylem	-9.47356
▁ken	-9.47372
▁tarihli	-9.47411
one	-9.47516
kçe	-9.47567
▁takımının	-9.47575
▁yerde	-9.47582
▁muhammed	-9.4762
▁45	-9.47661
▁kullanarak	-9.47674
▁sır	-9.47699
▁1981	-9.47751
sviçre	-9.47828
ation	-9.47845
▁alındı	-9.47848
▁edilme	-9.47892
▁kullanılma	-9.47919
▁kökenli	-9.47935
dri	-9.47968
tz	-9.48024
▁anı	-9.48059
▁hristiyan	-9.4814
▁dal	-9.48156
▁kod	-9.48184
▁düzenleme	-9.48217
▁bilgiler	-9.4826
▁olacak	-9.48272
07	-9.48368
▁çıkma	-9.4839
▁erkekler	-9.48463
▁cam	-9.48498
▁kültürü	-9.48708
▁emekli	-9.48738
▁civarında	-9.48738
dağ	-9.48766
▁‘	-9.48771
▁seviye	-9.488
▁süreç	-9.48827
▁sil	-9.48882
lığına	-9.48924
к	-9.48949
▁çoğunlukla	-9.48949
▁ismini	-9.4896
▁bitirdi	-9.48985
▁kullanılmıştır	-9.49163
▁tarihleri	-9.49261
▁dini	-9.49338
▁süren	-9.49343
▁oluşturur	-9.49455
cilik	-9.49465
▁elinde	-9.4953
▁ekonomi	-9.49656
▁tarzı	-9.49665
kal	-9.49724
▁test	-9.49759
▁say	-9.49788
▁meclisi	-9.498
▁tepki	-9.49838
▁harf	-9.49951
yken	-9.49956
▁nasıl	-9.49959
ebilme	-9.50006
▁erken	-9.50041
▁david	-9.50043
▁1974	-9.5014
▁32	-9.50202
▁ço	-9.50285
▁irak	-9.50436
▁tutul	-9.50436
▁ah	-9.50522
▁tasarlan	-9.50549
▁bilimsel	-9.50561
▁sıcak	-9.50604
▁etkili	-9.50635
▁kişiler	-9.50663
▁ekibi	-9.50787
▁ji	-9.50805
▁giydi	-9.50836
▁götür	-9.50843
▁dair	-9.50925
▁1978	-9.511
▁bilinmektedir	-9.5117
▁lider	-9.51178
▁vo	-9.51184
▁benim	-9.51229
lanmaktadır	-9.51266
▁bö	-9.51496
▁kaba	-9.5151
cık	-9.5153
▁yavaş	-9.51571
▁karakteri	-9.51617
▁dev	-9.51619
▁gazetesi	-9.51686
▁araya	-9.5169
▁şampiyonu	-9.51825
▁adası	-9.51838
▁tom	-9.51919
▁soğuk	-9.51987
▁fran	-9.5206
by	-9.52088
▁giren	-9.52098
▁kuruluşu	-9.52147
▁satış	-9.52172
qui	-9.52192
▁kuru	-9.52203
▁sağlan	-9.52206
lçe	-9.52282
▁basit	-9.52342
ston	-9.52342
▁antalya	-9.52383
▁kont	-9.5239
▁eleme	-9.52469
▁biz	-9.52559
▁gri	-9.52586
▁şarkının	-9.52649
▁profesör	-9.52686
▁öte	-9.52744
▁savun	-9.52749
▁tamamı	-9.52779
▁semt	-9.52812
▁yargı	-9.52826
▁esas	-9.5283
▁kalmıştır	-9.52848
▁kanıt	-9.5285
▁almak	-9.52943
▁çar	-9.52995
▁henüz	-9.52998
▁kulübünde	-9.53018
▁böyle	-9.53054
▁içindeki	-9.53054
▁vokal	-9.53095
vel	-9.53213
▁bakan	-9.53233
ä	-9.53279
▁ayı	-9.53301
▁sekiz	-9.53342
▁çevresinde	-9.53407
▁sezonun	-9.53412
▁metin	-9.53546
▁eri	-9.53566
▁olaylar	-9.53779
▁sayılı	-9.53785
masından	-9.53932
▁arapça	-9.54049
▁ova	-9.5407
78	-9.54107
set	-9.54212
▁dağıtı	-9.5427
ğini	-9.54304
▁filminde	-9.5433
kaya	-9.54334
▁şehirde	-9.54356
▁batısında	-9.54364
▁araba	-9.54379
▁she	-9.54401
▁64	-9.5441
▁adana	-9.54414
▁belde	-9.54463
▁dans	-9.54485
ser	-9.5452
▁günde	-9.54539
▁col	-9.54622
▁değiştiril	-9.54627
▁cla	-9.54763
▁komşu	-9.54768
▁aş	-9.54782
pınar	-9.54844
dik	-9.54874
▁darbe	-9.5489
▁konum	-9.54918
▁sebebiyle	-9.54978
▁kahraman	-9.55101
▁tehlike	-9.55197
▁alınan	-9.55207
lia	-9.5522
mur	-9.55257
rlanda	-9.55283
▁sınıfı	-9.55354
▁bazıları	-9.55384
▁kazı	-9.555
▁çözüm	-9.55501
70	-9.5554
▁derneği	-9.55615
ktedir	-9.55687
▁ülkesi	-9.55707
▁dava	-9.55716
bü	-9.558
▁1973	-9.55802
▁pas	-9.55833
▁organizasyon	-9.55908
▁has	-9.55929
▁los	-9.55931
▁bre	-9.5598
▁süt	-9.55991
▁ip	-9.56102
▁idare	-9.56148
▁biçimde	-9.56165
▁doğusunda	-9.56202
▁içerir	-9.56215
▁gazeteci	-9.56239
▁tesis	-9.56244
99	-9.5627
▁sahil	-9.56387
▁muha	-9.5639
oğulları	-9.56448
▁özgür	-9.56593
▁1975	-9.56622
▁tir	-9.56643
lardı	-9.56652
▁hasan	-9.5668
▁oto	-9.56693
▁mevki	-9.56704
▁fifa	-9.56849
▁hor	-9.5688
▁my	-9.57063
▁doğrudan	-9.57089
▁atom	-9.57261
kullanılmaktadır	-9.57306
▁köprü	-9.57315
▁sayfa	-9.57316
▁toplantı	-9.57348
ılarak	-9.57407
▁çay	-9.5741
▁önde	-9.57477
ırken	-9.57548
▁mikro	-9.57587
ō	-9.57593
▁yüzünden	-9.57599
▁sektör	-9.57651
▁1977	-9.57683
▁kalk	-9.57708
20	-9.57715
gg	-9.57761
ilebilir	-9.57789
▁başlıca	-9.57809
▁katı	-9.58032
▁resmî	-9.58102
ac	-9.58165
▁poli	-9.5819
▁far	-9.58304
▁yasak	-9.58389
95	-9.58622
▁play	-9.5867
▁mimar	-9.58719
▁önünde	-9.58738
▁rekor	-9.58742
▁süleyman	-9.58747
▁wo	-9.5879
▁masa	-9.5882
▁1972	-9.58908
landığı	-9.58928
▁kaybed	-9.58976
▁mont	-9.58989
▁kenar	-9.59134
▁1976	-9.59266
▁kütüphane	-9.59279
▁erzurum	-9.59295
77	-9.59326
▁seçil	-9.59386
80	-9.59417
kov	-9.59453
▁yönel	-9.59493
▁çalışması	-9.59525
ig	-9.59546
rem	-9.59675
▁bunlardan	-9.5973
dra	-9.59774
▁tarihçi	-9.59793
▁maden	-9.59808
layıcı	-9.59826
▁yaşadı	-9.59953
▁aralarında	-9.60028
▁ker	-9.60057
▁spi	-9.60059
▁aktif	-9.60242
▁1945	-9.60359
cılar	-9.60386
▁alanda	-9.60466
▁mavi	-9.60492
▁hol	-9.605
▁ulaştı	-9.60513
▁nazi	-9.60764
▁halkın	-9.60809
▁kutsal	-9.60817
▁ticari	-9.60858
▁çapında	-9.60885
▁trans	-9.60887
▁terim	-9.60945
96	-9.61025
▁etkinlik	-9.61046
▁tahta	-9.61076
▁yüzü	-9.61078
▁şimdi	-9.61111
▁müze	-9.61174
▁romanı	-9.61262
86	-9.6133
▁balık	-9.61415
▁ressam	-9.61435
в	-9.61537
▁açıkladı	-9.61554
▁altyapı	-9.6164
▁war	-9.61671
▁babasının	-9.61694
▁1968	-9.61708
▁heykel	-9.61811
▁öncü	-9.61888
yer	-9.6196
▁günlük	-9.62014
▁öğrenim	-9.62092
▁moskova	-9.62101
▁sivil	-9.62108
▁fransızca	-9.62164
▁kum	-9.62207
amaz	-9.62218
▁kavram	-9.6228
▁konumu	-9.62282
▁müzesi	-9.62302
▁parlamento	-9.62376
▁atatürk	-9.62462
▁klip	-9.62474
▁olduğundan	-9.62494
▁içine	-9.62563
л	-9.62565
▁hesap	-9.62587
▁cem	-9.62645
▁dünyada	-9.62729
▁sunucu	-9.62759
▁kıta	-9.62789
▁yükseldi	-9.62832
▁kurgu	-9.62854
▁sağladı	-9.62901
▁kurul	-9.62991
▁hayal	-9.63062
▁gezegen	-9.63066
ilerek	-9.63135
▁üretilen	-9.63153
abilmektedir	-9.63196
üdür	-9.63272
▁taki	-9.63305
▁oluştu	-9.63341
▁tarihte	-9.6336
▁aynalı	-9.63402
for	-9.63411
▁herkes	-9.63482
▁belçika	-9.63569
▁ukrayna	-9.63587
▁mimari	-9.63614
▁basın	-9.63633
▁fikir	-9.6365
▁nesne	-9.63673
▁öykü	-9.63674
▁gönderil	-9.63702
stro	-9.63709
▁listesinde	-9.63784
▁meyve	-9.63868
▁nedeni	-9.63961
▁uçuş	-9.63971
▁yukarı	-9.63985
▁çevir	-9.64023
▁oynama	-9.64138
▁hafif	-9.64146
▁os	-9.64179
rip	-9.64181
▁yayımlan	-9.64195
▁lı	-9.64197
▁hayvancılık	-9.64212
lardaki	-9.64213
çü	-9.64314
▁kanat	-9.64314
▁1971	-9.64477
▁kapasite	-9.64495
▁dost	-9.64514
car	-9.64565
т	-9.64601
▁pen	-9.64616
▁zafer	-9.64658
laştırıl	-9.64754
▁topluluğu	-9.64756
▁verilir	-9.64796
▁öncesi	-9.64801
▁insanların	-9.64814
▁ekran	-9.64855
▁onların	-9.64879
▁bildiri	-9.64885
▁tabi	-9.64934
abileceği	-9.64967
brahim	-9.65045
▁tiyatrosu	-9.65047
▁pers	-9.65122
▁siyaset	-9.65164
dığında	-9.65225
▁desteği	-9.65233
kon	-9.65249
▁değeri	-9.65278
▁1967	-9.65399
▁city	-9.65436
▁problem	-9.6545
▁geçme	-9.65486
▁yılda	-9.6549
▁görevli	-9.6563
▁makale	-9.65687
▁rapor	-9.65687
▁gelecek	-9.65732
▁yaşar	-9.65734
▁otomobil	-9.65768
lçenin	-9.65789
▁yetiş	-9.65789
▁1969	-9.65803
umu	-9.65912
abilen	-9.65962
▁gelişmiş	-9.65972
▁us	-9.66017
▁yayımlandı	-9.66033
▁getirildi	-9.66042
bat	-9.66055
▁zamanında	-9.6608
▁hakları	-9.66177
▁halka	-9.66202
▁yapmaya	-9.66243
88	-9.66253
▁george	-9.66338
▁görül	-9.66384
▁uğraş	-9.66428
▁onları	-9.66453
▁sarmal	-9.66497
▁iktidar	-9.66589
laştır	-9.66639
▁davranış	-9.66815
▁şekli	-9.66824
▁yayla	-9.66878
▁net	-9.66924
▁ur	-9.66961
11	-9.66963
▁birisi	-9.66999
▁biçim	-9.67023
▁hisse	-9.67107
▁moğol	-9.6711
▁yakınlarında	-9.67174
▁kurumu	-9.67216
▁teslim	-9.67221
▁soyu	-9.67256
eddin	-9.67272
▁vali	-9.67275
▁özerk	-9.67276
▁kabile	-9.67296
▁ör	-9.67365
▁ürünleri	-9.67378
▁geliştirme	-9.67405
▁gür	-9.67413
▁haçlı	-9.67498
cho	-9.67597
87	-9.67647
ting	-9.67682
▁site	-9.67695
▁yere	-9.67789
tha	-9.6782
▁küme	-9.67824
▁tuz	-9.67832
▁konya	-9.67859
log	-9.6786
84	-9.67865
▁yazılı	-9.67927
▁bugünkü	-9.67967
▁geçmiştir	-9.67973
emi	-9.67992
▁göstermektedir	-9.68042
▁geçersiz	-9.68082
likleri	-9.68098
üp	-9.68155
▁tbmm	-9.68234
▁duygu	-9.68234
▁ülkeler	-9.68314
ray	-9.6834
▁cumhurbaşkanı	-9.68398
▁başardı	-9.6845
▁1920	-9.68464
▁ph	-9.68497
lemiştir	-9.68506
▁çaba	-9.68555
bre	-9.68565
90	-9.6863
▁mm	-9.6865
örü	-9.68686
▁müzisyen	-9.68746
lüğünü	-9.69001
▁1961	-9.69071
▁asist	-9.69113
▁bölümde	-9.69156
67	-9.69156
▁kurtul	-9.69179
▁konferans	-9.6937
▁dile	-9.69491
▁başarısız	-9.6953
▁kültürel	-9.696
▁yayım	-9.69632
▁venedik	-9.69636
sco	-9.69642
▁danışma	-9.69657
▁trabzon	-9.69661
▁zayıf	-9.69703
▁topluluk	-9.69755
▁çı	-9.69796
▁çağrı	-9.69854
▁açtı	-9.69856
▁maçına	-9.69899
▁yayınladı	-9.69928
▁köşe	-9.69934
▁depo	-9.69938
▁akademisi	-9.69941
ling	-9.69971
▁off	-9.69986
▁ayaklanma	-9.69997
▁ağa	-9.70073
▁çoğunluğu	-9.70079
ity	-9.70146
76	-9.70173
bra	-9.702
▁gelebilir	-9.70225
▁tüket	-9.70236
▁uyum	-9.70307
lamış	-9.70348
▁ihtiyaç	-9.70371
▁oyunun	-9.70438
▁atandı	-9.70443
▁devri	-9.70471
▁etrafında	-9.70501
▁kurtar	-9.70526
▁oluşturan	-9.70555
▁diploma	-9.70557
▁vefat	-9.70588
▁gerekir	-9.70605
▁başlarında	-9.7065
▁mali	-9.70689
▁kule	-9.70714
▁bayram	-9.70731
▁mümkün	-9.70781
▁isteme	-9.70888
▁olimpiyat	-9.70934
gre	-9.70966
▁taarruz	-9.70969
▁ag	-9.70993
▁gazi	-9.71004
▁nün	-9.71031
▁neredeyse	-9.71081
▁ölümünden	-9.71105
▁sağlamak	-9.7121
▁yaparak	-9.71372
▁medya	-9.71384
▁sö	-9.714
▁silahlı	-9.71426
▁komutanı	-9.71499
▁takımına	-9.71528
▁sembol	-9.71616
▁isten	-9.71619
▁versiyonu	-9.71654
▁hızı	-9.71692
gue	-9.71763
▁euro	-9.71763
▁onay	-9.71872
▁balkan	-9.71973
▁gelmiş	-9.71987
▁çocukları	-9.72064
▁aktör	-9.72103
▁çalışmaya	-9.72136
▁yağış	-9.72145
▁fiziksel	-9.72173
tel	-9.72206
▁kentinde	-9.72256
sunu	-9.72274
▁1965	-9.72279
▁dol	-9.72358
▁iv	-9.72375
▁prof	-9.72389
▁ekiplerinden	-9.72417
▁ölçüde	-9.7244
▁1966	-9.72441
▁arkadaşları	-9.72497
▁â	-9.72546
▁boğaz	-9.7259
▁kilisesi	-9.72592
baş	-9.72607
ura	-9.72666
▁anlamı	-9.72684
89	-9.72777
stra	-9.7283
larındaki	-9.72835
makla	-9.7287
▁meslek	-9.72931
üstü	-9.72974
▁mev	-9.7301
ds	-9.73102
▁buldu	-9.73111
16	-9.73154
▁istedi	-9.7316
▁microsoft	-9.73165
▁bomba	-9.73176
▁uydu	-9.73198
▁kanalı	-9.73244
▁mahkeme	-9.73274
▁bıraktı	-9.73276
▁muharebesi	-9.73354
▁istifa	-9.73359
▁albümünü	-9.7339
▁katılan	-9.73392
▁büyükelçi	-9.73396
▁yayımlanan	-9.73427
▁mekan	-9.73465
▁lü	-9.73467
▁yıkıl	-9.73567
▁kart	-9.7359
▁iletişim	-9.73716
▁yandan	-9.73779
▁cev	-9.73808
▁kilometre	-9.73818
▁projesi	-9.73915
▁ertesi	-9.73922
▁vergi	-9.74017
▁kalesi	-9.74034
▁imparator	-9.7408
▁evlendi	-9.74148
▁temsilci	-9.7424
▁aşırı	-9.74243
▁bölgenin	-9.74287
▁biraz	-9.74288
▁varlık	-9.74293
▁akıl	-9.74298
▁kayseri	-9.7438
▁nba	-9.74388
▁beşinci	-9.74419
▁kurulması	-9.74491
▁eleştirmen	-9.74518
▁vermektedir	-9.74521
▁oluşturma	-9.74524
▁karşın	-9.74742
siyon	-9.74751
▁kolej	-9.74854
▁çekildi	-9.74933
▁çekti	-9.75013
▁ciddi	-9.75088
▁dışişleri	-9.75099
▁aileden	-9.75137
▁eli	-9.75142
▁senaryo	-9.75209
92	-9.75255
▁stadyumu	-9.7527
▁tro	-9.75277
▁sıcaklık	-9.7528
hir	-9.75411
98	-9.75441
▁soru	-9.75448
▁hızla	-9.75461
▁usta	-9.75477
▁dosya	-9.75513
▁adalet	-9.75666
▁hastalığı	-9.75696
▁lideri	-9.75726
dere	-9.75748
▁olimpiyatları	-9.75763
▁teki	-9.7578
▁seçilmiştir	-9.75789
▁yardımcısı	-9.75799
▁işlev	-9.75833
▁yazma	-9.75851
ر	-9.75863
93	-9.7604
▁girişim	-9.76048
▁halde	-9.76066
hisar	-9.76074
▁yerleşti	-9.76096
▁kalite	-9.76222
▁sarayı	-9.76241
▁uzan	-9.76262
▁anlamlara	-9.7629
▁gro	-9.7635
▁zamanla	-9.76374
▁finali	-9.76377
▁kıl	-9.76392
▁che	-9.76425
sion	-9.76456
▁dağılımı	-9.76528
▁1964	-9.76528
▁dönme	-9.76573
▁girmiştir	-9.76706
qua	-9.76739
▁toplamda	-9.76752
▁sabah	-9.768
▁charles	-9.76852
▁konseyi	-9.77031
▁yapılması	-9.77069
▁babasıdır	-9.7707
▁barındır	-9.77091
▁frank	-9.77105
▁meksika	-9.7715
▁hoca	-9.77186
▁gösterdi	-9.77189
▁sistemleri	-9.77222
▁olmadığını	-9.77252
iyeti	-9.77261
▁kaldırıl	-9.77276
▁asıllı	-9.77277
▁tır	-9.77355
▁sekreter	-9.77369
▁binası	-9.77373
▁ışın	-9.77521
▁gelme	-9.77607
▁hacı	-9.77747
▁adım	-9.77809
▁giden	-9.77951
▁denklem	-9.77988
▁grand	-9.78027
▁sim	-9.78029
▁galibiyet	-9.7803
lerdeki	-9.78068
▁kenti	-9.78099
▁macaristan	-9.78139
▁güncel	-9.78164
▁servis	-9.78205
luğunu	-9.78239
lerindeki	-9.78266
fet	-9.78292
sha	-9.78306
▁oynayan	-9.78314
cia	-9.78316
▁sporcu	-9.78339
▁federasyonu	-9.78376
▁plak	-9.78388
49	-9.78394
▁kopya	-9.78502
▁efsane	-9.78575
▁camii	-9.78596
▁komutanlığı	-9.78606
▁norveç	-9.78636
▁dağları	-9.78661
▁yanlış	-9.78739
▁world	-9.78757
▁kimi	-9.78769
dro	-9.78778
layıp	-9.78828
▁turu	-9.7888
cılığı	-9.78981
▁zirve	-9.78981
▁molekül	-9.78981
▁saç	-9.78991
▁tören	-9.79
▁bulgaristan	-9.79031
66	-9.79035
her	-9.79109
▁bölgeye	-9.79298
▁gitar	-9.79317
▁karısı	-9.79339
▁acı	-9.79349
▁denizi	-9.79355
▁yeterli	-9.79391
▁birimi	-9.79412
▁ayrılır	-9.7942
▁dizinin	-9.79433
▁diyarbakır	-9.79448
▁ekip	-9.7955
▁sezonda	-9.79582
▁sel	-9.79587
▁girme	-9.79678
▁1930	-9.79693
94	-9.79727
▁performansı	-9.79745
▁max	-9.79781
▁farsça	-9.79816
▁selçuklu	-9.79816
▁şeyh	-9.7987
▁durumunda	-9.79944
▁görüşme	-9.79945
▁kaliforniya	-9.79959
▁görülmektedir	-9.80002
▁yönetmenliğini	-9.80013
▁akım	-9.80015
▁seçme	-9.80035
▁asyalı	-9.80036
▁elektronik	-9.80085
süz	-9.80259
▁platform	-9.80267
▁düştü	-9.80275
şehir	-9.80349
▁finale	-9.80374
▁hüseyin	-9.8039
▁nişan	-9.80398
▁öneri	-9.80432
▁300	-9.80486
▁val	-9.80533
▁sürgün	-9.80535
ydu	-9.80536
▁ödülünü	-9.80562
▁emri	-9.80588
lendirme	-9.8061
▁mua	-9.80649
▁yaşama	-9.80698
şık	-9.80751
▁west	-9.80757
mann	-9.80757
▁ren	-9.80761
▁parlak	-9.80767
68	-9.8081
▁özgün	-9.80885
▁kişidir	-9.80933
▁çeşit	-9.80982
▁marka	-9.80988
▁giderek	-9.81151
▁davet	-9.81179
▁görülen	-9.81203
▁zamanlarda	-9.81217
▁antlaşması	-9.81253
▁yaşamı	-9.81336
▁ister	-9.81363
69	-9.81383
▁tren	-9.81404
ruk	-9.81512
▁1963	-9.81546
▁parçacık	-9.81579
▁istediği	-9.81606
▁fonksiyon	-9.81609
▁kapalı	-9.8161
ben	-9.81629
▁subay	-9.81857
lenerek	-9.81871
▁renkli	-9.8188
▁black	-9.81905
way	-9.81908
▁1940	-9.81943
▁operasyon	-9.81954
▁sınırı	-9.82058
▁eskişehir	-9.82095
▁politik	-9.82113
▁por	-9.8214
▁sürümü	-9.82144
▁forması	-9.82148
▁çıktığı	-9.82249
ulmuş	-9.82367
▁yayınlanmıştır	-9.82384
▁sözcüğü	-9.82386
▁dışarı	-9.82387
▁olayı	-9.8239
ford	-9.82442
▁jean	-9.82449
▁yakalan	-9.82513
jo	-9.8258
▁özellik	-9.82586
▁ajan	-9.82598
▁şeker	-9.82644
▁yoluyla	-9.82669
▁gözü	-9.82689
▁başladığı	-9.8269
▁meta	-9.827
▁birbirine	-9.82705
▁memur	-9.82735
▁temiz	-9.82783
▁başarısı	-9.82826
▁kimse	-9.82904
▁yaklaş	-9.8297
▁analiz	-9.83006
lamaktadır	-9.83034
form	-9.83042
▁yönetil	-9.83047
▁besteci	-9.83089
▁çap	-9.83372
▁yaşındayken	-9.83382
▁çarp	-9.83439
▁cephesi	-9.83491
ebilecek	-9.83517
▁öğrenciler	-9.83534
▁sebebi	-9.83544
▁sy	-9.83577
71	-9.83666
▁teorisi	-9.83751
▁sıkı	-9.83762
56	-9.83802
▁cephe	-9.83839
▁kurucusu	-9.83872
▁kuşatma	-9.83903
▁eline	-9.83936
▁turizm	-9.83998
▁sonuçları	-9.84003
gel	-9.84009
emedi	-9.84023
▁carl	-9.84034
▁çam	-9.84063
▁bölümünü	-9.84151
▁love	-9.84168
leşmiş	-9.84227
▁sürdü	-9.84278
stein	-9.84313
▁kaynakları	-9.84344
▁herschel	-9.84358
▁kullanır	-9.84373
lendiği	-9.844
▁bulgar	-9.84461
▁harita	-9.84467
▁klibi	-9.84587
▁idari	-9.84591
▁danimarka	-9.84615
ć	-9.84615
▁doktora	-9.84616
▁muharebe	-9.84619
▁yaşlı	-9.84647
▁kapsamında	-9.8468
▁amatör	-9.84732
leyerek	-9.84752
▁çağı	-9.84755
▁taşıma	-9.848
▁kelimesi	-9.8483
▁örgütü	-9.84856
▁hazırlık	-9.84924
▁cinsel	-9.84986
▁hanedanı	-9.85
▁ikili	-9.85005
▁amaçlı	-9.85104
ن	-9.85175
▁louis	-9.85176
▁ters	-9.85234
▁itibarı	-9.85236
59	-9.8528
▁yirmi	-9.85286
▁düzenli	-9.85291
ju	-9.85305
▁tanınmış	-9.85328
▁von	-9.85352
▁denge	-9.85359
luğa	-9.85387
▁daire	-9.85397
laştırma	-9.85411
abilmek	-9.85414
▁günümüze	-9.8549
▁yetenek	-9.855
▁dişi	-9.85501
lanabilir	-9.85508
▁gereken	-9.85621
▁eriş	-9.85627
tek	-9.85689
gor	-9.85716
▁geliştiril	-9.85739
▁bulma	-9.85779
▁1962	-9.85862
▁bakım	-9.8594
▁sanatçısı	-9.86016
▁hüküm	-9.86053
▁aşiret	-9.86108
▁uzaklıkta	-9.86222
bor	-9.86305
▁firma	-9.86316
▁yaprak	-9.86321
yip	-9.86345
▁düğün	-9.86393
▁yaşamaktadır	-9.86473
▁richard	-9.86566
▁karmaşık	-9.86588
▁sıralama	-9.86603
▁ligde	-9.86619
▁bakımından	-9.86648
▁avcı	-9.86705
paşa	-9.86719
▁elektron	-9.86739
63	-9.86757
▁1956	-9.8676
▁petrol	-9.86793
önü	-9.86801
▁adlandırılan	-9.86838
▁takımda	-9.86839
▁çekilme	-9.86898
▁tamamlay	-9.86948
š	-9.86961
▁sitesi	-9.8698
ografi	-9.86985
▁solo	-9.86992
▁edildiği	-9.87073
▁katolik	-9.87075
mor	-9.87096
▁kolu	-9.87113
▁sahipliği	-9.87152
▁sırp	-9.87157
▁geçici	-9.87219
▁seyahat	-9.8727
▁zırh	-9.87271
▁1944	-9.87338
▁düşür	-9.87367
▁demokratik	-9.87377
▁pozisyonunda	-9.87418
ksiyon	-9.87476
▁onur	-9.87512
▁fri	-9.8753
▁edebiyatı	-9.87574
▁sezonunun	-9.87577
▁getirdi	-9.87623
53	-9.87734
▁hep	-9.87923
▁belirtti	-9.87938
▁onlar	-9.87991
▁katıldığı	-9.88107
▁disk	-9.88116
▁şehirdeki	-9.88152
mparatorluk	-9.88228
▁bulut	-9.88328
▁merkezinde	-9.88364
▁şef	-9.88436
▁kra	-9.88464
▁dalında	-9.88466
▁kullandığı	-9.88498
ücü	-9.88518
▁müttefik	-9.88556
▁çıkardı	-9.88611
91	-9.88643
tasyon	-9.88675
▁ülkelerde	-9.88705
▁gösterme	-9.8871
▁hepsi	-9.88715
▁bon	-9.88717
▁diş	-9.88783
▁rob	-9.88796
▁anlamda	-9.88881
▁türleri	-9.8889
giller	-9.88954
▁afrikan	-9.8896
▁eserler	-9.88988
▁kişisel	-9.89075
▁rusça	-9.89145
▁peri	-9.89149
▁1959	-9.89159
▁endüstri	-9.89228
▁çan	-9.89284
▁karşılaştı	-9.8938
muz	-9.89437
▁kayıp	-9.89511
▁benz	-9.896
sky	-9.89688
▁sıvı	-9.89731
▁idam	-9.89768
▁1958	-9.89785
pol	-9.89844
▁kere	-9.89851
▁kafkas	-9.89906
▁paket	-9.89949
▁posta	-9.89966
▁çiçek	-9.89975
▁kendisinin	-9.9002
▁komuta	-9.90024
▁adaları	-9.90074
54	-9.90136
▁taban	-9.90149
▁inter	-9.90171
▁yaşanan	-9.90195
▁aktar	-9.90224
▁çalıştır	-9.90244
▁mektup	-9.90268
▁orkestra	-9.90268
▁yunanca	-9.90304
▁yaklaşım	-9.90305
▁yararlan	-9.90328
▁mensup	-9.9036
▁ulus	-9.9037
▁devrimi	-9.90446
▁önceden	-9.90502
▁kaptan	-9.90504
▁pilot	-9.90525
▁küre	-9.90537
▁united	-9.90542
▁hoş	-9.90548
▁tutuklan	-9.90557
▁odak	-9.90563
▁siyasal	-9.9059
▁arı	-9.90623
wood	-9.90626
cısı	-9.90635
▁halife	-9.90643
slav	-9.90726
▁maça	-9.90726
▁aksine	-9.90772
è	-9.90792
▁asit	-9.90828
▁çıkmış	-9.90879
81	-9.90895
▁almanca	-9.9091
▁şam	-9.90915
▁xi	-9.9092
▁komedi	-9.90961
▁ortadan	-9.90981
▁giyen	-9.90983
▁00	-9.91012
▁sevi	-9.91059
uğu	-9.91065
▁güçleri	-9.91076
▁özgü	-9.91107
▁angeles	-9.91115
▁denilen	-9.91156
▁toplumsal	-9.91183
▁olduğuna	-9.91292
▁adaylık	-9.91307
▁marmara	-9.91348
▁mobil	-9.91361
▁oynamıştır	-9.91367
74	-9.91446
▁deneme	-9.9148
▁ırk	-9.91505
▁kimyasal	-9.91581
▁sir	-9.91586
▁kullanılamaması	-9.91618
▁çak	-9.91715
▁çeviri	-9.91715
▁inceleme	-9.91718
▁kül	-9.91721
▁yörünge	-9.91733
▁aziz	-9.9174
▁kg	-9.91862
▁fikri	-9.91865
▁almaya	-9.91888
▁protein	-9.91892
▁padişah	-9.91918
▁strateji	-9.91941
▁kaydedil	-9.91942
▁1941	-9.91943
nşaat	-9.92076
72	-9.92151
▁hint	-9.92199
▁ortasında	-9.92253
lanarak	-9.92256
▁mehmed	-9.92288
▁algı	-9.9241
▁dokuz	-9.92485
▁1957	-9.92503
م	-9.9252
▁vermek	-9.92564
▁kullanılabilir	-9.92581
▁geçerli	-9.92595
▁sab	-9.9268
▁christ	-9.92729
▁bünyesinde	-9.92799
▁angel	-9.92813
▁36	-9.9282
bert	-9.92853
▁kulüplerinde	-9.92867
▁baz	-9.92917
▁edip	-9.92938
▁havalimanı	-9.93033
▁isteyen	-9.93057
▁şen	-9.93118
▁doğumlu	-9.93142
▁imzaladı	-9.93157
▁oğuz	-9.93198
gal	-9.93202
▁teklif	-9.93204
▁kel	-9.93243
▁başkent	-9.93263
teri	-9.9332
ulur	-9.93359
▁milletler	-9.93442
▁yenilgi	-9.93458
▁kontrolü	-9.93461
▁arttır	-9.93501
▁beğen	-9.93502
▁yönetmeni	-9.93507
▁ediyor	-9.93511
▁yalnız	-9.93517
▁150	-9.93527
▁alması	-9.93546
▁vb	-9.93548
51	-9.93582
▁kurt	-9.93629
▁hitler	-9.93655
▁kalp	-9.93666
▁bırakıl	-9.93713
▁1946	-9.93808
▁34	-9.93823
ılabilir	-9.93849
▁cou	-9.93877
lıyor	-9.93921
▁hot	-9.93945
▁mercek	-9.93952
▁zo	-9.93961
▁öğret	-9.93999
mparator	-9.94049
▁kılıç	-9.94067
▁deneyim	-9.9411
▁tarafında	-9.94137
▁varlığı	-9.94291
▁evlilik	-9.94317
▁girer	-9.94363
tuğ	-9.9441
▁kurtuluş	-9.94516
▁1954	-9.94555
▁kuzeybatı	-9.94563
▁kâ	-9.94591
▁sunu	-9.94622
▁katılmıştır	-9.94638
▁martin	-9.94668
▁latin	-9.94687
▁üretici	-9.94697
▁başlandı	-9.9474
malıdır	-9.94794
▁kalır	-9.94799
▁drama	-9.94805
kara	-9.94834
▁buluş	-9.94855
▁kitle	-9.94879
ction	-9.94893
▁kıs	-9.94915
▁tarz	-9.95052
61	-9.95085
▁çanakkale	-9.95086
▁yumurta	-9.95109
▁fabrika	-9.95118
▁75	-9.95245
▁gövde	-9.95349
▁kullanan	-9.95354
▁vilayet	-9.95373
▁bru	-9.9538
▁kentin	-9.95393
▁2018	-9.95426
▁askerleri	-9.95431
▁tarafı	-9.95432
▁ülkelerin	-9.95459
▁tabaka	-9.95497
83	-9.95505
▁records	-9.95516
▁kaydetti	-9.95516
well	-9.95519
▁yapıldığı	-9.95614
▁talep	-9.9563
▁gezi	-9.95636
▁cadde	-9.95696
▁sürüm	-9.95733
▁atina	-9.95765
▁dizisinde	-9.95786
▁nehir	-9.95786
▁aracılığıyla	-9.95803
▁köle	-9.95808
▁cel	-9.95819
diğinde	-9.9588
▁fatih	-9.95911
cher	-9.95974
▁edilebilir	-9.96047
▁ilişkin	-9.96065
▁gor	-9.96066
▁makam	-9.96104
▁1948	-9.96127
▁murat	-9.96193
▁nur	-9.962
▁elektro	-9.96237
▁oynamaktadır	-9.96238
▁yöntemi	-9.96253
▁alp	-9.96279
▁geçim	-9.96366
▁show	-9.96415
lly	-9.96459
▁banka	-9.96517
▁super	-9.9672
▁boya	-9.96753
▁saygı	-9.96791
35	-9.96862
▁seçimlerinde	-9.96953
▁finans	-9.97001
▁olası	-9.97014
▁hükûmet	-9.97084
▁apple	-9.97084
▁rap	-9.9716
▁koç	-9.97188
▁akın	-9.97225
▁olmakla	-9.97279
▁billboard	-9.97303
▁38	-9.97306
▁ahmed	-9.97307
▁sonuna	-9.9733
▁1955	-9.97358
▁milletvekilliği	-9.97376
kül	-9.97423
bilim	-9.97446
▁gençlik	-9.97486
▁kastamonu	-9.97499
▁yüksekliği	-9.97541
▁finlandiya	-9.97621
▁patlama	-9.97621
▁reklam	-9.97626
▁isimler	-9.97628
▁hastane	-9.97666
▁donanması	-9.97696
▁arjantin	-9.97743
▁esir	-9.9775
▁luc	-9.97752
ffe	-9.97752
▁birisidir	-9.97778
▁filistin	-9.97841
▁pay	-9.97852
▁yansıt	-9.97859
▁65	-9.97893
▁mahkemesi	-9.97901
▁simge	-9.97917
▁sor	-9.97949
▁duru	-9.97949
▁400	-9.98049
▁görür	-9.98059
▁temsilcisi	-9.98101
▁komitesi	-9.98133
▁anıt	-9.98158
metre	-9.98183
▁kudüs	-9.98187
▁kıyısında	-9.983
▁kavramı	-9.98313
▁mesaj	-9.98333
emez	-9.98372
▁çayı	-9.98456
▁zar	-9.9846
▁koca	-9.98472
73	-9.98486
▁gördüğü	-9.98502
▁1918	-9.9856
▁senesinde	-9.98574
smail	-9.98633
▁alınmıştır	-9.98649
▁komutan	-9.98651
▁üstünde	-9.98728
▁vakfı	-9.98752
▁albümünde	-9.98763
▁türlü	-9.98844
58	-9.98911
▁sokak	-9.98971
▁sonu	-9.99031
▁epi	-9.99075
▁koloni	-9.99153
▁zincir	-9.99226
▁sürdürdü	-9.99294
▁piyade	-9.99381
▁festival	-9.99389
▁1943	-9.99398
▁salonu	-9.99435
▁oluşturduğu	-9.99456
sizlik	-9.99489
64	-9.99512
▁cinsi	-9.99523
▁manyetik	-9.99572
▁henry	-9.99599
▁toplama	-9.99625
▁aylarında	-9.99629
62	-9.99705
▁taraftar	-9.99705
▁uçağı	-9.99713
▁valisi	-9.99781
▁olanak	-9.99804
▁sonlarında	-9.99906
▁seferi	-9.99907
▁48	-9.99922
▁ulaşım	-9.99984
▁mitoloji	-9.99993
▁kare	-10.0003
▁kısmını	-10.0004
▁kısaca	-10.0009
▁alfabe	-10.001
▁takımlarından	-10.0026
▁unvanı	-10.0026
▁real	-10.0029
▁cer	-10.0037
▁yürütül	-10.0041
м	-10.0042
▁hanım	-10.0047
▁millet	-10.0057
▁ardı	-10.0059
▁balıkesir	-10.006
ebileceği	-10.0061
▁kısmında	-10.0062
▁mühendis	-10.0063
▁tehdit	-10.0067
▁stra	-10.007
▁işletme	-10.008
▁muh	-10.0081
▁odası	-10.0083
▁değişken	-10.0083
▁romanya	-10.0085
▁sözcük	-10.0085
abı	-10.0087
▁federal	-10.0088
▁kraliyet	-10.0089
▁1939	-10.0101
▁hangi	-10.0102
▁yaptıkları	-10.0107
▁çağdaş	-10.0118
skender	-10.0121
▁eğitimini	-10.0122
▁will	-10.0126
▁etkileşim	-10.0138
▁miss	-10.0146
▁manisa	-10.0147
▁yazılmış	-10.0157
▁güneybatı	-10.0159
▁kullanıldı	-10.0161
▁koşu	-10.0163
idae	-10.0183
▁sürede	-10.0183
▁milyar	-10.0187
α	-10.0194
▁reform	-10.0195
▁akraba	-10.0197
field	-10.0197
▁gerektiğini	-10.0198
▁kraliçe	-10.0199
▁dolu	-10.02
15	-10.0206
▁google	-10.021
▁liman	-10.0219
▁olumlu	-10.0225
▁yükselt	-10.0229
▁ailesinin	-10.023
▁arkadaş	-10.0239
▁180	-10.0247
▁div	-10.025
▁kamera	-10.026
▁bağlıdır	-10.0262
▁yapılma	-10.0266
▁çalışmalarını	-10.0267
▁esnasında	-10.0271
▁nükleer	-10.0274
▁şampiyonlar	-10.0277
▁bölü	-10.0279
▁adayı	-10.0282
▁meşhur	-10.0294
▁adlandırıl	-10.0299
▁döner	-10.0302
▁getirme	-10.0303
▁benzeri	-10.0306
▁kanser	-10.0307
▁gerçekleşen	-10.0309
▁anahtar	-10.0312
▁sinir	-10.0319
▁hayatına	-10.0319
▁anlatı	-10.0329
▁pul	-10.0333
▁öncesinde	-10.0333
▁edirne	-10.0341
▁gelmesi	-10.0344
▁gösterildi	-10.0349
▁üste	-10.0352
▁eskiden	-10.0356
▁şehridir	-10.0357
▁madrid	-10.0359
▁gruba	-10.0359
▁deprem	-10.036
▁yazılan	-10.036
▁kalmış	-10.0362
▁avukat	-10.0369
▁37	-10.0374
ville	-10.0374
▁1953	-10.0377
▁arkasında	-10.0385
▁ışığı	-10.0391
у	-10.0393
▁42	-10.0401
▁king	-10.0412
▁grubunun	-10.0412
▁hayran	-10.0419
▁yatırım	-10.0425
▁ayar	-10.0432
▁mevsim	-10.0437
▁ndeki	-10.044
▁coğrafya	-10.044
mparatoru	-10.0445
▁yanına	-10.0447
▁cal	-10.045
▁gerektir	-10.0451
▁müsabaka	-10.0453
▁onlara	-10.0459
phi	-10.0461
▁psikoloji	-10.0461
▁dür	-10.0462
▁ailenin	-10.0466
▁geçmektedir	-10.047
▁thomas	-10.0471
و	-10.0474
▁rakibi	-10.048
▁göze	-10.0482
▁league	-10.0482
▁1942	-10.0482
▁kaçır	-10.0489
▁yarım	-10.0491
▁miktarda	-10.0492
▁seyirci	-10.0495
abilmesi	-10.0497
▁kanunu	-10.0499
▁fiyat	-10.0504
▁leon	-10.0511
▁adlandırılır	-10.0513
lenmektedir	-10.0513
eau	-10.0528
▁isimleri	-10.0535
▁teşkil	-10.0537
yorlardı	-10.0538
▁yerleştiril	-10.054
▁yönettiği	-10.0546
▁sinyal	-10.0554
▁geçirme	-10.0559
▁kurban	-10.0565
▁yayımladı	-10.0565
▁kapan	-10.0569
▁1952	-10.0578
top	-10.058
д	-10.0582
▁manastır	-10.0588
▁karbon	-10.0589
▁açılan	-10.0589
▁şunlardır	-10.0593
▁birleşmiş	-10.0593
▁bağış	-10.0596
▁kavuş	-10.0614
▁geçerek	-10.0619
▁rejim	-10.0625
▁yerleşme	-10.063
▁başlangıçta	-10.0634
▁alet	-10.0634
▁1947	-10.0639
▁emin	-10.0639
▁kırım	-10.064
▁görevine	-10.0643
▁yetiştiril	-10.0645
▁gelişimi	-10.0649
▁ndaki	-10.0658
▁dijital	-10.0665
ttifak	-10.0665
▁kullanılarak	-10.0667
▁risk	-10.0668
▁mağara	-10.0673
▁viyana	-10.0674
▁bölgelerde	-10.0676
▁rengi	-10.0681
▁jackson	-10.0685
▁attığı	-10.069
▁yaşamını	-10.0698
▁sınırlı	-10.0698
▁faaliyetleri	-10.0703
▁çıkması	-10.0712
▁görünüm	-10.0714
▁ayrılmıştır	-10.0714
▁ağrı	-10.0729
▁bileşen	-10.0733
leşmesi	-10.0742
37	-10.0747
▁terimi	-10.0755
▁artış	-10.0756
statistik	-10.0759
97	-10.0767
▁mağlup	-10.077
▁sevgi	-10.0776
▁zü	-10.0782
▁pho	-10.0783
▁jüri	-10.0784
▁ilişkileri	-10.0786
▁vücut	-10.0786
▁etnik	-10.0789
▁hayatta	-10.0796
▁tatlı	-10.0796
▁vazgeç	-10.0805
▁yetiştir	-10.0808
low	-10.0814
▁zorunlu	-10.0815
▁saint	-10.0819
▁aşık	-10.0833
lenebilir	-10.0844
▁elçi	-10.0846
▁değişiklik	-10.0847
▁rakip	-10.0852
▁alternatif	-10.0854
▁gereği	-10.0857
▁akşam	-10.086
tori	-10.0861
▁farkı	-10.0866
▁latince	-10.0875
▁voleybol	-10.0879
▁kullanılması	-10.088
▁55	-10.0881
▁ömer	-10.0887
▁dolaş	-10.0888
▁zu	-10.0889
▁ölmüştür	-10.089
▁tutar	-10.0904
▁kimya	-10.0906
▁gaga	-10.0907
▁toplu	-10.0911
▁halklardan	-10.0915
▁direniş	-10.0923
▁kaleci	-10.0935
▁köpek	-10.0942
▁1919	-10.0943
▁statüsü	-10.0944
▁gerçekleştirile	-10.0945
▁1949	-10.0947
▁göçmen	-10.0955
▁yitir	-10.0956
▁jack	-10.0957
▁yüzde	-10.0957
▁müdürü	-10.0962
52	-10.0969
ب	-10.0972
▁macar	-10.098
▁buffy	-10.0989
▁milliyetçi	-10.0994
▁1938	-10.0994
ebilen	-10.0999
▁otel	-10.1
▁derecede	-10.1002
▁tarihinin	-10.1013
▁okun	-10.1023
▁arama	-10.103
▁bölgesel	-10.1032
25	-10.1034
▁harekât	-10.1038
▁bankası	-10.1041
▁güreş	-10.1045
▁piyasa	-10.1048
ebilmektedir	-10.1059
▁verimli	-10.1059
▁okuma	-10.1071
▁nesil	-10.1071
▁ilerleme	-10.1073
▁frekans	-10.1079
▁yaşamış	-10.1088
▁potansiyel	-10.1091
▁değişme	-10.11
65	-10.1102
▁vücud	-10.1111
▁karanlık	-10.1119
▁evrim	-10.1126
▁olacaktır	-10.1133
▁vermiş	-10.1133
▁saniye	-10.1155
▁ayrılma	-10.1156
▁stadyum	-10.1156
▁değerlendiril	-10.1157
▁olmayı	-10.1161
▁tanesi	-10.1165
ā	-10.117
▁genelinde	-10.1171
▁parkı	-10.1174
▁yıldızı	-10.1175
▁uzunluğu	-10.1177
▁gelin	-10.1201
▁kurduğu	-10.1205
▁yönetiminde	-10.1209
▁maria	-10.121
▁gücünü	-10.1211
7	-10.1213
▁kongre	-10.1216
▁ordusunun	-10.1223
▁filmidir	-10.1231
▁açılış	-10.1232
▁geçirdiği	-10.1232
▁big	-10.1246
layacak	-10.1261
▁taşındı	-10.1266
▁halkının	-10.1266
▁bulunması	-10.1266
▁emre	-10.1272
▁yerinde	-10.129
▁vurgu	-10.129
▁demokrat	-10.1298
▁wwe	-10.1301
▁kaldığı	-10.1302
▁kullanılama	-10.1304
▁rakam	-10.1307
▁ağırlığı	-10.1308
▁başlaması	-10.131
▁dersleri	-10.1313
▁kendilerini	-10.1325
▁önüne	-10.1332
▁hop	-10.1336
▁kuşat	-10.1347
▁1923	-10.1349
▁macera	-10.1358
▁parçaları	-10.1359
▁çelik	-10.136
▁yusuf	-10.1363
▁paralel	-10.1372
▁edward	-10.1374
▁seçilen	-10.138
▁altındaki	-10.1385
▁1936	-10.1387
▁97	-10.1388
▁meydan	-10.1393
▁trt	-10.1394
▁şampiyonluk	-10.1398
▁cisim	-10.1405
▁ilaç	-10.1412
leştirilmiş	-10.1416
▁ötürü	-10.1418
▁değişiklikler	-10.1421
▁tanıştı	-10.1423
▁mühendisliği	-10.1432
▁yakıt	-10.1434
▁1951	-10.1434
▁şov	-10.1435
▁yuva	-10.1444
▁oluşturulan	-10.1446
▁golünü	-10.1451
üyor	-10.1451
▁eksik	-10.1455
▁albert	-10.1459
▁cevap	-10.1463
▁mezarlığı	-10.1467
▁akımı	-10.147
75	-10.1471
▁başkanlık	-10.1483
▁antrenör	-10.1484
▁kolordu	-10.1496
▁rahatsız	-10.1498
▁eğlence	-10.1499
▁askerî	-10.1505
amamıştır	-10.1509
▁selim	-10.1519
▁turda	-10.152
45	-10.1521
▁demiryolu	-10.1525
48	-10.153
▁üstlendi	-10.1532
▁yağmur	-10.1536
▁post	-10.1536
▁öngör	-10.1537
▁tanınan	-10.1538
▁band	-10.1548
د	-10.1554
▁gösterdiği	-10.1563
▁yarışı	-10.1571
▁gönderildi	-10.1573
▁ebu	-10.1573
▁edecek	-10.1581
▁antlaşma	-10.1581
▁çalışmalarına	-10.1588
▁katılımcı	-10.1589
▁olmadan	-10.1592
▁1933	-10.1593
▁sadrazam	-10.1595
▁kendilerine	-10.16
▁buhar	-10.1601
▁joseph	-10.1604
▁açıldı	-10.1606
▁mezunudur	-10.1607
▁müdahale	-10.161
▁sırbistan	-10.161
▁music	-10.161
▁görüldü	-10.1612
▁kısıt	-10.1617
▁araştırmacı	-10.1618
▁dönemlerde	-10.1618
▁bölgelerinde	-10.1622
▁belgesel	-10.1636
▁ağırlık	-10.1644
č	-10.1648
▁küresel	-10.1652
▁foto	-10.1656
▁yarısında	-10.1658
▁dönüşüm	-10.1662
▁fırsat	-10.1663
▁1924	-10.1667
▁şansı	-10.1671
▁soğu	-10.1677
▁açıdan	-10.1679
▁sözü	-10.169
▁eşlik	-10.1691
▁şüphe	-10.1693
▁kullandı	-10.17
▁tasarımı	-10.1706
▁büyükşehir	-10.1706
▁formül	-10.1717
▁okudu	-10.172
12	-10.1724
▁sakarya	-10.1726
▁aittir	-10.1728
▁evinde	-10.1728
▁miktarı	-10.1731
▁doldur	-10.1739
▁egemenliği	-10.1741
▁karışık	-10.1741
▁yangın	-10.1742
▁muhafaza	-10.1743
▁sınav	-10.1752
▁orhan	-10.1753
▁faktör	-10.1753
▁göstermiştir	-10.1753
▁buğday	-10.1761
▁işlemi	-10.1767
▁sorgu	-10.1774
19	-10.1784
▁öldürme	-10.1788
▁karakterini	-10.1798
▁güneydoğu	-10.18
kâr	-10.1809
ي	-10.1821
▁hasar	-10.1822
▁bayrak	-10.1828
▁ihtiyacı	-10.1836
▁hapis	-10.1843
▁kitabında	-10.1854
▁yardımcılığı	-10.1856
34	-10.186
▁vadisi	-10.1863
▁geçtiği	-10.1864
▁olabileceği	-10.1872
▁gerilim	-10.1875
▁rütbesi	-10.1877
▁biçimi	-10.1878
▁gürcistan	-10.1878
▁1922	-10.1881
▁isteği	-10.1885
▁karşılığında	-10.1888
▁kazandığı	-10.1898
▁aktris	-10.1903
amayan	-10.1908
▁bulur	-10.1917
▁satışa	-10.1921
▁çağır	-10.1923
▁verilme	-10.193
▁tüy	-10.1936
▁uzanan	-10.1937
ettin	-10.1937
▁fonksiyonu	-10.1939
▁başbakanı	-10.1952
▁idaresi	-10.1953
▁mersin	-10.1953
▁biyo	-10.1956
▁ederken	-10.1959
▁olmaktadır	-10.196
▁şifre	-10.196
▁cezası	-10.1971
▁yazmıştır	-10.1976
▁gömül	-10.1976
27	-10.1976
▁katkıda	-10.198
▁üyesidir	-10.198
▁görülme	-10.1984
▁alınması	-10.1985
▁kümesi	-10.1987
▁dayalı	-10.1989
▁buraya	-10.1993
▁devrim	-10.1995
▁yoğunluğu	-10.1995
▁uzunluğunda	-10.1999
▁hidro	-10.2002
▁allah	-10.2003
▁kuantum	-10.2003
▁sorunları	-10.2006
▁120	-10.201
▁formasını	-10.2017
▁bakteri	-10.2021
▁değiştirme	-10.2022
▁tokat	-10.2023
▁arasına	-10.2025
▁pasifik	-10.2043
▁maruz	-10.2044
▁ücret	-10.2049
▁yeteneği	-10.2055
▁aşı	-10.2062
▁günümüz	-10.2067
▁hıristiyan	-10.2067
▁gökada	-10.2068
▁koleksiyon	-10.2071
▁işletim	-10.2071
▁anlamında	-10.2075
▁gürcü	-10.2075
▁metro	-10.2079
▁gemisi	-10.2085
▁manchester	-10.2089
▁sho	-10.209
▁komisyonu	-10.2095
▁altıncı	-10.2095
▁giymektedir	-10.2095
▁türüdür	-10.2096
47	-10.2097
▁pozisyon	-10.2099
▁gaziantep	-10.2104
▁sıklıkla	-10.2108
▁41	-10.2113
▁amb	-10.2113
▁çekirdek	-10.2114
▁senato	-10.2118
▁makedonya	-10.212
▁tarihsel	-10.2122
▁dizide	-10.213
▁cent	-10.2134
▁arnavutluk	-10.2136
ward	-10.2141
▁protesto	-10.2151
▁belirgin	-10.2152
▁washington	-10.2163
▁39	-10.2168
21	-10.2169
▁tru	-10.217
▁kullanıldığı	-10.2179
▁bakır	-10.218
▁çatı	-10.2181
▁79	-10.2185
▁rekabet	-10.2185
▁dakikada	-10.2187
▁öldürüldü	-10.2189
work	-10.2214
▁muhtar	-10.2216
▁cemaat	-10.2229
▁imkân	-10.2235
ture	-10.2238
▁sscb	-10.2248
▁müdür	-10.2254
▁olsun	-10.2262
▁dönen	-10.2269
ل	-10.227
▁edebi	-10.2274
▁zehir	-10.228
▁çekilen	-10.2287
▁mümkündür	-10.2292
▁figür	-10.2293
▁durumlarda	-10.2293
▁çalıştığı	-10.2296
▁bakış	-10.2305
▁57	-10.2307
▁firması	-10.2334
▁personel	-10.2336
▁arkeoloji	-10.2337
▁1937	-10.2338
▁sorunu	-10.2343
▁sığın	-10.2344
▁malatya	-10.2355
▁rahat	-10.2356
▁albümüdür	-10.2358
▁francis	-10.236
▁laboratuvar	-10.2361
▁doğmuştur	-10.2377
▁bronz	-10.2379
▁çukur	-10.2383
▁44	-10.2386
▁1934	-10.2388
▁insanın	-10.239
▁cemiyeti	-10.2391
▁element	-10.2392
▁ortamı	-10.2392
▁sıfır	-10.2393
lçesi	-10.2401
▁salon	-10.2401
göl	-10.2402
▁kuralları	-10.2404
▁bahar	-10.2405
▁sağlama	-10.2406
▁live	-10.2411
▁august	-10.2422
▁gerçekleşti	-10.2423
yorum	-10.2425
▁ermenistan	-10.2425
▁eğilim	-10.2425
28	-10.243
▁başlanmıştır	-10.2436
▁kırık	-10.2436
▁rivayet	-10.2438
▁muhtemelen	-10.2446
▁cenaze	-10.2447
▁dairesi	-10.2454
▁alex	-10.2456
▁röportaj	-10.246
▁oylama	-10.2471
▁oynay	-10.2474
▁inanç	-10.2484
▁1914	-10.249
▁şarkıyı	-10.2493
▁yönlendir	-10.2506
▁cinayet	-10.2518
▁1921	-10.2525
▁çalışmıştır	-10.2528
▁çıkardığı	-10.2539
▁olumsuz	-10.254
36	-10.2547
▁oluşturu	-10.2555
▁müzikal	-10.256
▁gösterilmiştir	-10.2569
▁terör	-10.257
▁tarihlerinde	-10.2573
▁aşağıda	-10.2579
▁çeyrek	-10.2579
▁with	-10.2582
▁yenerek	-10.2589
▁şiş	-10.2601
▁coğrafi	-10.2605
▁gerektiği	-10.2606
▁1935	-10.2608
▁katman	-10.2608
▁oyunculuk	-10.2608
▁harry	-10.2611
17	-10.2621
▁roket	-10.2622
▁stalin	-10.2622
▁şimdiki	-10.2632
▁trabzonspor	-10.2635
▁öldüğü	-10.2636
▁600	-10.2639
▁teşvik	-10.2641
▁abdullah	-10.2642
▁şans	-10.265
▁bosna	-10.266
▁anılan	-10.2664
▁konak	-10.2668
▁ağacı	-10.2673
▁kalkınma	-10.2676
▁dilinde	-10.2681
▁adlandır	-10.2684
▁donanma	-10.2696
▁yönde	-10.2714
▁bağımsızlık	-10.2725
▁yürütme	-10.2726
▁uyu	-10.2731
▁yakınında	-10.2733
▁varlığını	-10.2736
▁peygamber	-10.2743
▁aslan	-10.2757
▁düşünülmektedir	-10.2759
▁dvd	-10.2764
▁anlatır	-10.2766
▁oluşturulmuş	-10.2768
▁kurulduğu	-10.2769
▁vezir	-10.2772
▁kapısı	-10.2774
▁yarımadası	-10.2779
9	-10.2784
▁basınç	-10.2788
▁atmosfer	-10.2792
▁suikast	-10.2799
▁organize	-10.2818
▁hariç	-10.2826
▁tayin	-10.2827
▁getiren	-10.2828
▁görevinden	-10.2828
▁protokol	-10.2829
▁otomatik	-10.2835
▁bulunmuş	-10.2842
▁köylüler	-10.2845
57	-10.2848
▁kristal	-10.2853
▁otorite	-10.2856
▁istasyonu	-10.2864
▁ödeme	-10.2866
31	-10.2876
▁vize	-10.2887
▁sağlamıştır	-10.2894
▁sağlam	-10.2898
▁kahverengi	-10.2899
▁county	-10.2902
▁grafik	-10.2902
▁43	-10.2904
▁tatar	-10.2942
▁donanım	-10.2943
▁okyanus	-10.2952
ören	-10.2955
14	-10.2957
▁hekim	-10.2957
ə	-10.2962
▁yugoslavya	-10.2966
18	-10.2969
39	-10.2984
▁kablo	-10.2986
▁zorla	-10.2986
▁sözleşmesi	-10.2988
▁akarsu	-10.299
▁zemin	-10.299
▁görülmüştür	-10.2996
▁yazılmıştır	-10.2997
cumhurbaşkanlığı	-10.2999
▁indiril	-10.3005
▁hakimiyeti	-10.3005
▁karayolu	-10.3006
▁boyutlu	-10.301
▁1928	-10.3011
▁görsel	-10.3016
▁buzul	-10.3016
▁1927	-10.3021
▁kuyruk	-10.3023
▁sonsuz	-10.3025
▁yetersiz	-10.303
▁versiyon	-10.3032
▁istek	-10.3049
ú	-10.305
▁kısmen	-10.3051
▁yıldırım	-10.3054
▁sara	-10.3056
▁maliyet	-10.3059
▁dağılımının	-10.3074
▁gıda	-10.3076
▁1925	-10.3079
▁alış	-10.308
▁etkinliği	-10.3102
▁kazanmış	-10.3109
▁1915	-10.3128
ough	-10.3128
55	-10.3129
▁kesil	-10.3138
▁devrimci	-10.3139
▁derecesi	-10.314
▁1917	-10.315
▁galip	-10.3151
▁oluşturmaktadır	-10.3156
▁kuram	-10.3161
▁imkan	-10.3165
▁çelebi	-10.3167
▁çekme	-10.3169
▁çorum	-10.3177
▁başlangıcı	-10.318
▁yardımıyla	-10.3183
ο	-10.3184
▁şehristanı	-10.3184
▁süvari	-10.3191
▁virüs	-10.3204
▁kademe	-10.3208
▁ağzı	-10.3212
izasyon	-10.3222
▁çalışmaktadır	-10.3229
26	-10.3246
▁rüzgar	-10.3249
▁bayrağı	-10.3251
▁46	-10.3252
▁eşcinsel	-10.326
▁tabanlı	-10.3261
▁yükselen	-10.3264
▁term	-10.3267
▁oluşumu	-10.3273
▁aşkın	-10.3289
▁keşfedil	-10.329
▁mutlak	-10.3305
lıyordu	-10.3313
▁lehçe	-10.3319
▁nitelik	-10.333
▁davran	-10.3332
▁bireyler	-10.3335
▁koşulları	-10.3341
▁kazanarak	-10.3342
▁alınarak	-10.3348
▁yılmaz	-10.3358
▁sıkıntı	-10.3358
▁fabrikası	-10.3363
port	-10.3375
▁ağırlıklı	-10.338
▁kağan	-10.3384
▁vermeye	-10.3389
▁divan	-10.3389
▁mutlu	-10.339
▁kongresi	-10.3393
24	-10.3399
▁daniel	-10.34
▁kurtarma	-10.3401
▁çevresi	-10.3416
▁yukarıda	-10.3421
▁forvet	-10.3425
▁gitarist	-10.3425
▁lord	-10.3425
▁savunu	-10.3429
▁bulunmaktaydı	-10.343
▁getirir	-10.3434
▁uğradı	-10.3438
▁muhafız	-10.3442
▁bahsedil	-10.3442
▁yaratıcı	-10.3446
▁geleneği	-10.3456
▁sayede	-10.3458
▁anlaşması	-10.3469
stihbarat	-10.3474
▁doğrultusunda	-10.3474
▁1926	-10.3478
▁unvanını	-10.3484
▁editör	-10.3485
▁olmuştu	-10.3493
▁körfezi	-10.3498
▁özgürlük	-10.3501
▁medrese	-10.3506
▁açılmıştır	-10.3519
birinden	-10.3523
▁geliştirilen	-10.3525
▁hücum	-10.3532
▁tekniği	-10.3534
ñ	-10.3534
▁içerik	-10.3536
▁töreni	-10.3537
▁olacağı	-10.3543
▁familyasından	-10.355
▁başlayarak	-10.3551
▁girdiği	-10.3553
▁egemen	-10.3558
▁ortodoks	-10.3563
▁blue	-10.3566
▁metropol	-10.3575
▁altay	-10.3578
▁çarpı	-10.3583
▁geçmesi	-10.3585
▁okyanusu	-10.3588
32	-10.36
▁bisiklet	-10.3602
▁senarist	-10.3602
33	-10.3609
▁zeytin	-10.362
ullah	-10.3626
▁seçilmiş	-10.3636
▁boğ	-10.3637
ë	-10.3645
▁kökeni	-10.3649
▁1932	-10.3657
г	-10.3739
б	-10.3758
ы	-10.4232
ã	-10.4762
س	-10.4798
й	-10.4855
ū	-10.4982
ی	-10.5148
п	-10.5377
ه	-10.6014
ч	-10.6074
ι	-10.6138
ê	-10.6199
ς	-10.6208
ν	-10.6213
ρ	-10.642
я	-10.6754
λ	-10.7258
à	-10.7409
ł	-10.7574
ت	-10.7779
τ	-10.7927
ï	-10.8072
ø	-10.8094
з	-10.8293
ش	-10.8502
х	-10.8626
ž	-10.8697
ī	-10.8866
ь	-10.8872
σ	-10.8908
μ	-10.8994
ε	-10.9162
κ	-10.9162
π	-10.9512
γ	-10.9695
э	-10.9889
å	-11.0134
ع	-11.0629
ô	-11.1203
ق	-11.1211
ح	-11.146
‘	-11.1546
ш	-11.1732
‭	-11.1821
δ	-11.187
ج	-11.2011
́	-11.2011
ز	-11.2255
‬	-11.2332
ա	-11.2497
خ	-11.2532
ß	-11.3268
ة	-11.3297
ف	-11.3325
β	-11.3507
ა	-11.3575
η	-11.3962
ă	-11.4013
ц	-11.4074
ი	-11.4354
ș	-11.4396
ω	-11.447
ʿ	-11.4653
י	-11.4675
ك	-11.4707
υ	-11.4773
ά	-11.5119
ί	-11.521
æ	-11.5233
ж	-11.5256
ک	-11.5849
θ	-11.6109
ē	-11.6235
ъ	-11.6389
φ	-11.661
ό	-11.6637
ŋ	-11.7055
ى	-11.7194
ń	-11.7564
ו	-11.7608
ф	-11.8554
َ	-11.8667
і	-11.9354
đ	-11.9424
ś	-11.9424
χ	-11.9547
ì	-11.9653
ն	-11.9653
ě	-11.9761
ė	-11.9925
ð	-12.0036
ط	-12.0073
ר	-12.0129
ე	-12.0531
ה	-12.0668
ò	-12.0888
أ	-12.099
ý	-12.1072
ص	-12.1217
έ	-12.1601
א	-12.1754
ր	-12.1842
ř	-12.1865
گ	-12.1865
რ	-12.2274
ל	-12.2509
ю	-12.2581
غ	-12.2605
آ	-12.2774
ή	-12.2873
õ	-12.3097
ù	-12.325
ύ	-12.3301
ン	-12.3939
ե	-12.3966
ː	-12.4161
ב	-12.4161
ո	-12.4273
ˈ	-12.4359
מ	-12.4387
ს	-12.4416
ġ	-12.4445
ლ	-12.4474
ო	-12.462
ţ	-12.4649
ḥ	-12.4738
‚	-12.4797
ש	-12.4827
ー	-12.4918
ę	-12.5225
ő	-12.5414
ի	-12.5478
щ	-12.5672
ת	-12.577
پ	-12.5936
ζ	-12.6071
ј	-12.6208
ד	-12.6666
ą	-12.6702
ż	-12.6702
ِ	-12.6702
ʻ	-12.6811
ნ	-12.6921
ё	-12.6995
ү	-12.6995
ვ	-12.707
ө	-12.707
қ	-12.7453
յ	-12.7492
ُ	-12.7531
ǎ	-12.7729
ә	-12.7891
נ	-12.7932
ʼ	-12.7973
ӏ	-12.8014
्	-12.8014
چ	-12.8264
მ	-12.8349
ा	-12.8349
ئ	-12.8435
ْ	-12.8565
र	-12.9148
უ	-12.9429
ע	-12.9477
ւ	-12.9621
თ	-12.9718
ბ	-12.9866
þ	-12.9916
ض	-13.0066
ս	-13.0168
ŏ	-13.0323
ώ	-13.0375
ћ	-13.0427
ξ	-13.0586
大	-13.0586
մ	-13.064
ן	-13.064
ル	-13.0693
տ	-13.1078
ּ	-13.1134
ň	-13.1305
ң	-13.1478
إ	-13.1478
・	-13.1478
の	-13.1536
פ	-13.1654
ț	-13.1956
ח	-13.1956
‟	-13.1956
დ	-13.2017
ם	-13.2079
ק	-13.2079
հ	-13.2141
中	-13.2141
ɑ	-13.2203
≤	-13.2203
ψ	-13.2266
ث	-13.233
イ	-13.2457
կ	-13.2522
ḳ	-13.2522
ṣ	-13.2587
ス	-13.2587
山	-13.2587
ّ	-13.2784
ṭ	-13.2851
ָ	-13.2918
ذ	-13.3054
כ	-13.3191
ħ	-13.326
ラ	-13.333
ǔ	-13.3543
ǐ	-13.3615
ɛ	-13.3615
ɪ	-13.3688
ג	-13.3688
ト	-13.3761
ظ	-13.3908
ź	-13.4134
ַ	-13.4134
ס	-13.4134
म	-13.4134
ア	-13.4134
œ	-13.4134
ְ	-13.4365
ʾ	-13.4521
գ	-13.4521
ִ	-13.4521
ء	-13.4601
ە	-13.5007
გ	-13.5091
∞	-13.5091
이	-13.5175
ტ	-13.5259
ט	-13.5345
კ	-13.5431
ხ	-13.5431
∈	-13.5431
リ	-13.5518
ŭ	-13.5965
ғ	-13.5965
լ	-13.5965
վ	-13.5965
子	-13.5965
ि	-13.6149
न	-13.6149
ھ	-13.6432
ۇ	-13.6432
乡	-13.6432
国	-13.6432
日	-13.6625
ہ	-13.6723
ク	-13.6723
ド	-13.6922
ƒ	-13.7023
⁄	-13.7228
民	-13.7228
マ	-13.7333
ʃ	-13.7438
ք	-13.7438
შ	-13.7544
ņ	-13.7544
त	-13.7652
ქ	-13.776
ܝ	-13.776
ी	-13.776
ッ	-13.776
ɾ	-13.776
թ	-13.787
ܐ	-13.787
բ	-13.7981
צ	-13.7981
モ	-13.7981
ɔ	-13.8094
क	-13.8094
人	-13.8094
ז	-13.8207
阿	-13.8207
新	-13.8322
≠	-13.8439
镇	-13.8675
া	-13.8918
汗	-13.8918
դ	-13.9041
县	-13.9041
フ	-13.9041
व	-13.9166
國	-13.9166
ų	-13.9166
市	-13.9293
于	-13.9421
可	-13.9421
東	-13.9421
ḵ	-13.9421
स	-13.9551
天	-13.9551
ệ	-13.9551
会	-13.9551
շ	-13.9682
三	-13.9682
ु	-13.9816
า	-13.9816
்	-13.9816
ზ	-13.9951
ֹ	-13.9951
‐	-13.9951
द	-14.0088
克	-14.0088
本	-14.0088
ロ	-14.0227
神	-14.0227
シ	-14.0227
タ	-14.0227
ұ	-14.0368
レ	-14.0368
北	-14.0368
島	-14.0368
ร	-14.0368
ـ	-14.051
य	-14.051
ů	-14.051
ղ	-14.0511
單	-14.0511
ḫ	-14.0655
ĭ	-14.0802
い	-14.0802
カ	-14.0802
和	-14.0802
縣	-14.0802
M	-14.0952
պ	-14.0952
治	-14.0952
区	-14.1103
社	-14.1103
∇	-14.1257
ジ	-14.1257
ĝ	-14.1257
ィ	-14.1257
ウ	-14.1413
那	-14.1572
ķ	-14.1572
̡	-14.1572
प	-14.1733
į	-14.1733
兵	-14.1733
海	-14.1733
田	-14.1733
木	-14.1897
高	-14.1897
զ	-14.2064
ʒ	-14.2064
生	-14.2064
ї	-14.2064
ფ	-14.2233
ֶ	-14.2233
♯	-14.2233
스	-14.2233
ť	-14.2233
ׁ	-14.2233
ܪ	-14.2406
ल	-14.2406
族	-14.2406
사	-14.2406
љ	-14.2406
ᐊ	-14.2406
ह	-14.2581
े	-14.2581
་	-14.2581
史	-14.2581
バ	-14.2581
ӧ	-14.276
地	-14.276
川	-14.276
대	-14.276
ძ	-14.2942
√	-14.2942
一	-14.2942
五	-14.2942
ʁ	-14.3127
ḍ	-14.3127
♭	-14.3127
伊	-14.3127
武	-14.3127
軍	-14.3127
コ	-14.3127
ÿ	-14.3316
ʔ	-14.3316
ἐ	-14.3316
ᖅ	-14.3316
ც	-14.3508
学	-14.3508
月	-14.3508
道	-14.3508
西	-14.3508
ჩ	-14.3704
һ	-14.3704
ज	-14.3704
ナ	-14.3704
ブ	-14.3704
김	-14.3704
ֵ	-14.3704
ܘ	-14.3904
្	-14.3904
自	-14.3904
太	-14.3904
特	-14.3904
ყ	-14.4108
̃	-14.4108
ҫ	-14.4108
後	-14.4108
ા	-14.4108
ʊ	-14.4316
グ	-14.4316
城	-14.4316
金	-14.4316
ग	-14.4316
ᑦ	-14.4316
인	-14.4316
ĕ	-14.4529
ǒ	-14.4529
श	-14.4529
都	-14.4529
ļ	-14.4529
њ	-14.4529
ી	-14.4747
ニ	-14.4747
ў	-14.4747
პ	-14.4969
‰	-14.4969
尔	-14.4969
지	-14.4969
է	-14.4969
ា	-14.4969
ľ	-14.5196
ۍ	-14.5196
ん	-14.5196
キ	-14.5196
公	-14.5196
安	-14.5196
疆	-14.5196
아	-14.5196
ȟ	-14.5196
オ	-14.5196
ὐ	-14.5429
ῖ	-14.5429
デ	-14.5429
ģ	-14.5429
є	-14.5429
か	-14.5429
京	-14.5429
南	-14.5429
家	-14.5429
文	-14.5429
기	-14.5429
ῦ	-14.5667
͡	-14.5667
ं	-14.5667
ャ	-14.5667
建	-14.5667
ย	-14.5667
น	-14.5667
ǫ	-14.5911
≡	-14.5911
小	-14.5911
州	-14.5911
李	-14.5911
河	-14.5911
郎	-14.5911
ガ	-14.5911
ܡ	-14.6161
ũ	-14.6161
ۆ	-14.6161
ễ	-14.6161
式	-14.6161
戦	-14.6161
正	-14.6161
法	-14.6161
ᐃ	-14.6161
정	-14.6161
ὁ	-14.6417
ď	-14.6417
な	-14.6417
古	-14.6417
주	-14.6417
サ	-14.6417
ܢ	-14.668
ђ	-14.668
ῆ	-14.668
ソ	-14.668
王	-14.668
石	-14.668
部	-14.668
隊	-14.668
ɡ	-14.695
ƣ	-14.695
̀	-14.695
ब	-14.695
ो	-14.695
ố	-14.695
⟩	-14.695
沙	-14.695
ĥ	-14.7228
チ	-14.7228
勒	-14.7228
寺	-14.7228
帝	-14.7228
拉	-14.7228
斯	-14.7228
長	-14.7228
～	-14.7228
ڭ	-14.7228
ா	-14.7228
ก	-14.7228
ܬ	-14.7514
ण	-14.7514
ṯ	-14.7514
り	-14.7514
女	-14.7514
平	-14.7514
拟	-14.7514
리	-14.7514
시	-14.7514
에	-14.7514
원	-14.7514
한	-14.7514
̨	-14.7514
ダ	-14.7514
រ	-14.7514
ღ	-14.7808
भ	-14.7808
ⴰ	-14.7808
ミ	-14.7808
동	-14.7808
ǧ	-14.7808
ˌ	-14.7808
ế	-14.7808
∂	-14.7808
エ	-14.7808
台	-14.7808
宗	-14.7808
湖	-14.7808
漢	-14.7808
皇	-14.7808
虚	-14.7808
ி	-14.7808
ܕ	-14.8111
̂	-14.8111
ᒃ	-14.8111
ạ	-14.8111
う	-14.8111
き	-14.8111
ュ	-14.8111
之	-14.8111
代	-14.8111
十	-14.8111
村	-14.8111
烏	-14.8111
華	-14.8111
트	-14.8111
র	-14.8111
テ	-14.8111
ӱ	-14.8111
株	-14.8111
ἰ	-14.8424
ռ	-14.8424
ક	-14.8424
メ	-14.8424
가	-14.8424
ɐ	-14.8424
ɕ	-14.8424
̗	-14.8424
ध	-14.8424
ṫ	-14.8424
ビ	-14.8424
共	-14.8424
方	-14.8424
소	-14.8424
의	-14.8424
ท	-14.8424
ŝ	-14.8746
̈	-14.8746
-	-14.8746
R	-14.8746
˥	-14.8746
ց	-14.8746
್	-14.8746
›	-14.8746
し	-14.8746
て	-14.8746
上	-14.8746
原	-14.8746
居	-14.8746
江	-14.8746
空	-14.8746
野	-14.8746
국	-14.8746
ั	-14.8746
্	-14.8746
ަ	-14.9079
ჯ	-14.9079
̊	-14.9079
ҳ	-14.9079
ḡ	-14.9079
ḷ	-14.9079
ẓ	-14.9079
元	-14.9079
利	-14.9079
塔	-14.9079
羅	-14.9079
里	-14.9079
자	-14.9079
ɣ	-14.9079
џ	-14.9079
ม	-14.9079
あ	-14.9079
パ	-14.9079
ム	-14.9079
合	-14.9079
군	-14.9079
다	-14.9079
க	-14.9079
ப	-14.9079
ர	-14.908
も	-14.9424
ơ	-14.9424
ך	-14.9424
ம	-14.9424
ว	-14.9424
←	-14.9424
♦	-14.9424
さ	-14.9424
ら	-14.9424
事	-14.9424
二	-14.9424
八	-14.9424
六	-14.9424
區	-14.9424
华	-14.9424
師	-14.9424
朝	-14.9424
陸	-14.9424
라	-14.9424
수	-14.9424
ิ	-14.9424
ư	-14.9424
ุ	-14.9424
ᕐ	-14.9424
წ	-14.9781
ᐅ	-14.9781
↑	-14.9781
∧	-14.9781
⟨	-14.9781
若	-14.9781
記	-14.9781
語	-14.9781
상	-14.9781
չ	-14.9781
խ	-14.9781
ស	-14.9781
ް	-15.0152
އ	-15.0152
ἱ	-15.0152
ؤ	-15.0152
府	-15.0152
摩	-15.0152
明	-15.0152
白	-15.0152
성	-15.0152
하	-15.0152
ર	-15.0152
ῶ	-15.0152
ェ	-15.0152
ต	-15.0152
ব	-15.0152
ջ	-15.0536
ჭ	-15.0536
ἄ	-15.0536
ץ	-15.0536
ێ	-15.0536
ོ	-15.0536
に	-15.0536
ま	-15.0536
ギ	-15.0536
政	-15.0536
校	-15.0536
第	-15.0536
美	-15.0536
行	-15.0536
設	-15.0536
민	-15.0536
연	-15.0536
우	-15.0536
ĉ	-15.0536
़	-15.0536
박	-15.0536
ᓀ	-15.0536
ۋ	-15.0936
দ	-15.0936
อ	-15.0936
전	-15.0936
÷	-15.0936
ű	-15.0936
ґ	-15.0936
ެ	-15.0936
ᑐ	-15.0936
ḩ	-15.0936
ズ	-15.0936
ツ	-15.0936
プ	-15.0936
光	-15.0936
回	-15.0936
徳	-15.0936
松	-15.0936
組	-15.0936
英	-15.0936
草	-15.0936
院	-15.0936
ڤ	-15.0936
ન	-15.0936
신	-15.0936
ு	-15.0936
ἡ	-15.1353
ष	-15.1353
니	-15.1353
해	-15.1353
ɨ	-15.1353
ḏ	-15.1353
ṡ	-15.1353
ộ	-15.1353
ử	-15.1353
∩	-15.1353
た	-15.1353
れ	-15.1353
ケ	-15.1353
ョ	-15.1353
博	-15.1353
吉	-15.1353
团	-15.1353
央	-15.1353
教	-15.1353
黄	-15.1353
セ	-15.1353
ベ	-15.1353
ี	-15.1353
ܠ	-15.1788
어	-15.1788
ĩ	-15.1788
ǝ	-15.1788
ɒ	-15.1788
ծ	-15.1788
ি	-15.1788
ล	-15.1788
ន	-15.1788
‡	-15.1788
►	-15.1788
み	-15.1788
世	-15.1788
九	-15.1788
产	-15.1788
團	-15.1788
委	-15.1788
學	-15.1788
年	-15.1788
水	-15.1788
泰	-15.1788
清	-15.1788
玉	-15.1788
產	-15.1788
見	-15.1788
鞮	-15.1788
風	-15.1788
馬	-15.1788
고	-15.1788
그	-15.1788
로	-15.1788
현	-15.1788
်	-15.1788
ゴ	-15.1788
영	-15.1788
ส	-15.1788
เ	-15.1788
ু	-15.2242
ӷ	-15.2242
փ	-15.2242
ಾ	-15.2242
ᓂ	-15.2242
나	-15.2242
유	-15.2242
ས	-15.2242
ᑕ	-15.2242
ả	-15.2242
こ	-15.2242
る	-15.2242
乌	-15.2242
井	-15.2242
唐	-15.2242
支	-15.2242
波	-15.2242
經	-15.2242
義	-15.2242
龍	-15.2242
도	-15.2242
진	-15.2242
화	-15.2242
ં	-15.2242
ง	-15.2242
有	-15.2719
ម	-15.2719
ɬ	-15.2719
ʉ	-15.2719
ҧ	-15.2719
օ	-15.2719
ު	-15.2719
ड	-15.2719
ĵ	-15.2719
˩	-15.2719
ې	-15.2719
ṇ	-15.2719
↔	-15.2719
■	-15.2719
が	-15.2719
と	-15.2719
を	-15.2719
东	-15.2719
主	-15.2719
哈	-15.2719
土	-15.2719
場	-15.2719
夏	-15.2719
宮	-15.2719
時	-15.2719
朱	-15.2719
林	-15.2719
突	-15.2719
連	-15.2719
구	-15.2719
서	-15.2719
선	-15.2719
은	-15.2719
ন	-15.2719
ژ	-15.2719
ʂ	-15.3219
ϊ	-15.3219
ܣ	-15.3219
ۈ	-15.3219
ܥ	-15.3219
ट	-15.3219
ὶ	-15.3219
く	-15.3219
ノ	-15.3219
무	-15.3219
)	-15.3219
ף	-15.3219
ے	-15.3219
์	-15.3219
ር	-15.3219
ọ	-15.3219
₹	-15.3219
お	-15.3219
つ	-15.3219
ザ	-15.3219
別	-15.3219
司	-15.3219
名	-15.3219
周	-15.3219
四	-15.3219
夜	-15.3219
奴	-15.3219
愛	-15.3219
春	-15.3219
爾	-15.3219
真	-15.3219
立	-15.3219
節	-15.3219
茶	-15.3219
趙	-15.3219
車	-15.3219
逐	-15.3219
通	-15.3219
面	-15.3219
미	-15.3219
씨	-15.3219
ѣ	-15.3219
ે	-15.3219
્	-15.3219
ち	-15.3219
ハ	-15.3219
த	-15.3219
̄	-15.3219
ނ	-15.3745
च	-15.3745
บ	-15.3745
̆	-15.3745
ً	-15.3745
अ	-15.3745
ห	-15.3745
ក	-15.3745
っ	-15.3745
ピ	-15.3745
员	-15.3745
士	-15.3745
布	-15.3745
心	-15.3745
藤	-15.3745
ત	-15.3745
강	-15.3745
공	-15.3745
만	-15.3745
ձ	-15.3745
ᒥ	-15.3745
ᔪ	-15.3745
ި	-15.43
ܓ	-15.43
ܵ	-15.43
ম	-15.43
স	-15.43
:	-15.43
ী	-15.43
ት	-15.43
ṅ	-15.43
ầ	-15.43
ồ	-15.43
▪	-15.43
は	-15.43
ァ	-15.43
夫	-15.43
少	-15.43
工	-15.43
志	-15.43
格	-15.43
無	-15.43
甲	-15.43
设	-15.43
際	-15.43
韓	-15.43
디	-15.43
일	-15.43
제	-15.43
호	-15.43
ḽ	-15.43
ボ	-15.43
래	-15.43
ะ	-15.43
̹	-15.4301
ᓗ	-15.4301
ல	-15.4301
ᠠ	-15.4889
ֲ	-15.4889
ܫ	-15.4889
ὀ	-15.4889
세	-15.4889
(	-15.4889
ƶ	-15.4889
ɯ	-15.4889
ҥ	-15.4889
ል	-15.4889
ὸ	-15.4889
∆	-15.4889
け	-15.4889
下	-15.4889
不	-15.4889
什	-15.4889
俊	-15.4889
厥	-15.4889
廣	-15.4889
德	-15.4889
我	-15.4889
流	-15.4889
港	-15.4889
火	-15.4889
番	-15.4889
米	-15.4889
花	-15.4889
衛	-15.4889
門	-15.4889
단	-15.4889
보	-15.4889
요	-15.4889
ճ	-15.4889
ು	-15.4889
ត	-15.4889
ḋ	-15.4889
ṛ	-15.4889
拓	-15.4889
福	-15.4889
ប	-15.4889
ワ	-15.4889
ᑎ	-15.4889
މ	-15.5514
ព	-15.5514
ާ	-15.5514
য	-15.5514
ನ	-15.5514
ិ	-15.5514
ἔ	-15.5514
,	-15.5514
ǃ	-15.5514
ɵ	-15.5514
۲	-15.5514
ང	-15.5514
₤	-15.5514
∅	-15.5514
⋅	-15.5514
ⱨ	-15.5514
ⱪ	-15.5514
保	-15.5514
刀	-15.5514
劉	-15.5514
加	-15.5514
喀	-15.5514
孔	-15.5514
官	-15.5514
屍	-15.5514
張	-15.5514
成	-15.5514
所	-15.5514
會	-15.5514
津	-15.5514
谷	-15.5514
館	-15.5514
마	-15.5514
थ	-15.5514
氏	-15.5514
達	-15.5514
̲	-15.5514
ன	-15.5514
่	-15.5514
ᓇ	-15.5514
พ	-15.5514
엔	-15.5514
ҡ	-15.618
ू	-15.618
ా	-15.618
မ	-15.618
ာ	-15.618
ল	-15.618
ช	-15.618
ṃ	-15.618
랑	-15.618
재	-15.618
C	-15.618
ʕ	-15.618
ứ	-15.618
⊗	-15.618
仁	-15.618
件	-15.618
信	-15.618
党	-15.618
動	-15.618
匈	-15.618
君	-15.618
夢	-15.618
孜	-15.618
定	-15.618
念	-15.618
手	-15.618
普	-15.618
書	-15.618
楊	-15.618
機	-15.618
物	-15.618
胡	-15.618
苏	-15.618
跋	-15.618
香	-15.618
魏	-15.618
광	-15.618
조	-15.618
최	-15.618
ҷ	-15.618
ڵ	-15.618
ܒ	-15.618
ុ	-15.618
ᕕ	-15.618
ᓕ	-15.618
터	-15.618
්	-15.6895
్	-15.6895
ᐦ	-15.6895
ᑯ	-15.6895
ብ	-15.6895
ን	-15.6895
ᓄ	-15.6895
だ	-15.6895
化	-15.6895
타	-15.6895
ʹ	-15.6895
ʽ	-15.6895
ׂ	-15.6895
ګ	-15.6895
ः	-15.6895
ራ	-15.6895
₩	-15.6895
↵	-15.6895
ど	-15.6895
め	-15.6895
よ	-15.6895
ポ	-15.6895
丹	-15.6895
争	-15.6895
吐	-15.6895
呼	-15.6895
基	-15.6895
奇	-15.6895
字	-15.6895
孫	-15.6895
察	-15.6895
尾	-15.6895
巴	-15.6895
彦	-15.6895
忠	-15.6895
提	-15.6895
柳	-15.6895
比	-15.6895
百	-15.6895
県	-15.6895
者	-15.6895
耶	-15.6895
葉	-15.6895
薩	-15.6895
蘇	-15.6895
言	-15.6895
雅	-15.6895
青	-15.6895
鲁	-15.6895
남	-15.6895
너	-15.6895
문	-15.6895
안	-15.6895
җ	-15.6895
জ	-15.6895
ి	-15.6895
ಕ	-15.6895
ರ	-15.6895
ป	-15.6895
ক	-15.6895
મ	-15.6895
ᔭ	-15.6895
ވ	-15.7664
ὑ	-15.7664
비	-15.7664
ܦ	-15.7664
়	-15.7664
ʋ	-15.7664
̓	-15.7664
ֆ	-15.7664
۱	-15.7664
ܟ	-15.7664
પ	-15.7664
ો	-15.7664
வ	-15.7664
አ	-15.7664
ᐣ	-15.7664
♀	-15.7664
え	-15.7664
ば	-15.7664
ホ	-15.7664
乃	-15.7664
佛	-15.7664
口	-15.7664
命	-15.7664
堂	-15.7664
契	-15.7664
宿	-15.7664
岡	-15.7664
憲	-15.7664
戰	-15.7664
星	-15.7664
永	-15.7664
沖	-15.7664
派	-15.7664
球	-15.7664
護	-15.7664
赤	-15.7664
邪	-15.7664
重	-15.7664
雄	-15.7664
音	-15.7664
먼	-15.7664
애	-15.7664
오	-15.7664
왕	-15.7664
음	-15.7664
장	-15.7664
̌	-15.7664
ժ	-15.7664
ڕ	-15.7664
ර	-15.7664
จ	-15.7664
ὕ	-15.7664
ペ	-15.7664
ヴ	-15.7664
양	-15.7664
윤	-15.7664
을	-15.7664
임	-15.7664
ѓ	-15.7664
ட	-15.7664
ய	-15.7664
ག	-15.7664
ᒡ	-15.7664
ܩ	-15.8497
ⵜ	-15.8497
ไ	-15.8497
้	-15.8497
ῥ	-15.8497
백	-15.8497
વ	-15.8497
す	-15.8497
分	-15.8497
曹	-15.8497
͵	-15.8497
ѕ	-15.8497
ӈ	-15.8497
ٌ	-15.8497
ٹ	-15.8497
आ	-15.8497
સ	-15.8497
བ	-15.8497
ậ	-15.8497
ὄ	-15.8497
∪	-15.8497
☉	-15.8497
ⵏ	-15.8497
ヤ	-15.8497
丁	-15.8497
乙	-15.8497
伽	-15.8497
体	-15.8497
千	-15.8497
址	-15.8497
域	-15.8497
多	-15.8497
宋	-15.8497
崎	-15.8497
巻	-15.8497
康	-15.8497
思	-15.8497
根	-15.8497
樂	-15.8497
洋	-15.8497
洞	-15.8497
玄	-15.8497
理	-15.8497
画	-15.8497
科	-15.8497
紫	-15.8497
老	-15.8497
術	-15.8497
賀	-15.8497
関	-15.8497
陳	-15.8497
陽	-15.8497
드	-15.8497
부	-15.8497
산	-15.8497
석	-15.8497
천	-15.8497
프	-15.8497
ವ	-15.8497
富	-15.8497
여	-15.8497
ង	-15.8497
ជ	-15.8497
ச	-15.8497
ಸ	-15.8497
ᑲ	-15.8497
̩	-15.9406
ᓴ	-15.9406
ἑ	-15.9406
ը	-15.9406
ទ	-15.9406
研	-15.9406
녀	-15.9406
ǁ	-15.9406
ΐ	-15.9406
ख	-15.9406
প	-15.9406
ગ	-15.9406
じ	-15.9406
汉	-15.9406
秋	-15.9406
학	-15.9406
°	-15.9406
ข	-15.9406
ค	-15.9406
ར	-15.9406
ấ	-15.9406
∀	-15.9406
⊆	-15.9406
ヒ	-15.9406
ヨ	-15.9406
侯	-15.9406
内	-15.9406
剛	-15.9406
同	-15.9406
密	-15.9406
寿	-15.9406
尼	-15.9406
条	-15.9406
歌	-15.9406
沢	-15.9406
源	-15.9406
甘	-15.9406
町	-15.9406
省	-15.9406
維	-15.9406
群	-15.9406
臺	-15.9406
艾	-15.9406
蘭	-15.9406
話	-15.9406
语	-15.9406
达	-15.9406
郡	-15.9406
雨	-15.9406
魯	-15.9406
鮮	-15.9406
黑	-15.9406
경	-15.9406
금	-15.9406
데	-15.9406
반	-15.9406
처	-15.9406
청	-15.9406
크	-15.9406
태	-15.9406
𐰇	-15.9406
ǩ	-15.9406
ގ	-15.9406
ಿ	-15.9406
િ	-15.9406
ᓱ	-15.9406
જ	-15.9406
ಯ	-15.9406
거	-15.9406
바	-15.9406
테	-15.9406
ކ	-16.0406
ހ	-16.0406
ြ	-16.0406
̯	-16.0406
ⵎ	-16.0406
Z	-16.0406
ɲ	-16.0406
ќ	-16.0406
ܼ	-16.0406
ਸ	-16.0406
ழ	-16.0406
ด	-16.0406
โ	-16.0406
ု	-16.0406
ማ	-16.0406
ም	-16.0406
፡	-16.0406
ᐏ	-16.0406
ᑭ	-16.0406
ំ	-16.0406
ḗ	-16.0406
ᾶ	-16.0406
‹	-16.0406
∗	-16.0406
♥	-16.0406
ⵓ	-16.0406
や	-16.0406
ォ	-16.0406
七	-16.0406
久	-16.0406
仏	-16.0406
全	-16.0406
力	-16.0406
半	-16.0406
善	-16.0406
图	-16.0406
姫	-16.0406
宇	-16.0406
尊	-16.0406
希	-16.0406
度	-16.0406
御	-16.0406
智	-16.0406
業	-16.0406
浦	-16.0406
灣	-16.0406
片	-16.0406
犁	-16.0406
産	-16.0406
由	-16.0406
的	-16.0406
究	-16.0406
章	-16.0406
紅	-16.0406
臣	-16.0406
蜜	-16.0406
親	-16.0406
詩	-16.0406
豆	-16.0406
鈴	-16.0406
阪	-16.0406
陀	-16.0406
雲	-16.0406
马	-16.0406
黒	-16.0406
齊	-16.0406
는	-16.0406
레	-16.0406
면	-16.0406
야	-16.0406
종	-16.0406
찬	-16.0406
투	-16.0406
혜	-16.0406
회	-16.0406
𐰼	-16.0406
𐱅	-16.0406
ҟ	-16.0406
ਿ	-16.0406
ை	-16.0406
គ	-16.0406
ⴻ	-16.0406
ヘ	-16.0406
航	-16.0406
ἁ	-16.1517
ʏ	-16.1517
̠	-16.1517
ܚ	-16.1517
ং	-16.1517
ত	-16.1517
ὅ	-16.1517
ⵍ	-16.1517
ゲ	-16.1517
ŵ	-16.1517
ǰ	-16.1517
ʎ	-16.1517
ٍ	-16.1517
۶	-16.1517
۹	-16.1517
ރ	-16.1517
ދ	-16.1517
ਰ	-16.1517
ಮ	-16.1517
າ	-16.1517
ད	-16.1517
མ	-16.1517
ኤ	-16.1517
ክ	-16.1517
ḑ	-16.1517
ṗ	-16.1517
∑	-16.1517
∨	-16.1517
⊂	-16.1517
ひ	-16.1517
び	-16.1517
ユ	-16.1517
万	-16.1517
书	-16.1517
伯	-16.1517
使	-16.1517
健	-16.1517
助	-16.1517
叶	-16.1517
吳	-16.1517
吾	-16.1517
員	-16.1517
园	-16.1517
圖	-16.1517
坂	-16.1517
寶	-16.1517
差	-16.1517
干	-16.1517
幸	-16.1517
庁	-16.1517
弥	-16.1517
战	-16.1517
托	-16.1517
撃	-16.1517
攻	-16.1517
於	-16.1517
昭	-16.1517
梁	-16.1517
池	-16.1517
洛	-16.1517
熊	-16.1517
病	-16.1517
相	-16.1517
知	-16.1517
色	-16.1517
萨	-16.1517
蒙	-16.1517
虎	-16.1517
警	-16.1517
话	-16.1517
路	-16.1517
车	-16.1517
造	-16.1517
遗	-16.1517
錫	-16.1517
鎮	-16.1517
限	-16.1517
隆	-16.1517
集	-16.1517
鹿	-16.1517
麻	-16.1517
黨	-16.1517
龙	-16.1517
개	-16.1517
교	-16.1517
당	-16.1517
더	-16.1517
러	-16.1517
승	-16.1517
울	-16.1517
점	-16.1517
희	-16.1517
￼	-16.1517
ϝ	-16.1517
ٱ	-16.1517
ٴ	-16.1517
હ	-16.1517
ૂ	-16.1517
ལ	-16.1517
ហ	-16.1517
េ	-16.1517
ⵉ	-16.1517
外	-16.1517
落	-16.1517
ꞑ	-16.1517
ீ	-16.1517
វ	-16.1517
ʌ	-16.2767
ڠ	-16.2767
ބ	-16.2767
হ	-16.2767
င	-16.2767
យ	-16.2767
ŧ	-16.2767
ǀ	-16.2767
ɟ	-16.2767
ѐ	-16.2767
ѡ	-16.2767
ӄ	-16.2767
ܛ	-16.2767
અ	-16.2767
ర	-16.2767
ೆ	-16.2767
ณ	-16.2767
ธ	-16.2767
န	-16.2767
း	-16.2767
ሕ	-16.2767
ስ	-16.2767
ᐍ	-16.2767
᠊	-16.2767
ṟ	-16.2767
ị	-16.2767
ἴ	-16.2767
⊞	-16.2767
┘	-16.2767
☆	-16.2767
せ	-16.2767
ょ	-16.2767
わ	-16.2767
ヌ	-16.2767
ネ	-16.2767
亜	-16.2767
仙	-16.2767
仮	-16.2767
伝	-16.2767
佐	-16.2767
作	-16.2767
修	-16.2767
先	-16.2767
兰	-16.2767
冒	-16.2767
别	-16.2767
劇	-16.2767
勝	-16.2767
卓	-16.2767
参	-16.2767
友	-16.2767
喜	-16.2767
団	-16.2767
園	-16.2767
始	-16.2767
孙	-16.2767
宣	-16.2767
寧	-16.2767
岳	-16.2767
恋	-16.2767
恩	-16.2767
戸	-16.2767
才	-16.2767
技	-16.2767
旗	-16.2767
晉	-16.2767
末	-16.2767
果	-16.2767
桜	-16.2767
梅	-16.2767
梨	-16.2767
泉	-16.2767
湾	-16.2767
澳	-16.2767
爆	-16.2767
用	-16.2767
留	-16.2767
目	-16.2767
直	-16.2767
秀	-16.2767
精	-16.2767
系	-16.2767
紀	-16.2767
総	-16.2767
能	-16.2767
船	-16.2767
芝	-16.2767
菜	-16.2767
蔵	-16.2767
足	-16.2767
迎	-16.2767
開	-16.2767
门	-16.2767
電	-16.2767
震	-16.2767
頭	-16.2767
鮨	-16.2767
齐	-16.2767
건	-16.2767
노	-16.2767
룹	-16.2767
블	-16.2767
빈	-16.2767
용	-16.2767
차	-16.2767
치	-16.2767
티	-16.2767
피	-16.2767
홍	-16.2767
환	-16.2767
ǘ	-16.2767
ʑ	-16.2767
̞	-16.2767
ে	-16.2767
દ	-16.2767
ා	-16.2767
ᓐ	-16.2767
ᓯ	-16.2767
ᖃ	-16.2767
ᖏ	-16.2767
ី	-16.2767
ⵔ	-16.2767
ゃ	-16.2767
備	-16.2767
望	-16.2767
위	-16.2767
ල	-16.2767
ᒪ	-16.2767
幕	-16.2767
छ	-16.2768
গ	-16.2768
మ	-16.2768
ુ	-16.4196
න	-16.4196
သ	-16.4196
इ	-16.4196
ृ	-16.4196
వ	-16.4196
ေ	-16.4196
했	-16.4196
ʀ	-16.4196
ಳ	-16.4196
ိ	-16.4196
ᓪ	-16.4196
계	-16.4196
들	-16.4196
별	-16.4196
/	-16.4196
ǜ	-16.4196
ǯ	-16.4196
ˋ	-16.4196
͂	-16.4196
ѯ	-16.4196
ӽ	-16.4196
۳	-16.4196
۵	-16.4196
ै	-16.4196
ৰ	-16.4196
ਾ	-16.4196
ધ	-16.4196
ય	-16.4196
લ	-16.4196
ษ	-16.4196
ู	-16.4196
ན	-16.4196
ပ	-16.4196
ነ	-16.4196
ẕ	-16.4196
ằ	-16.4196
ẽ	-16.4196
ờ	-16.4196
ỳ	-16.4196
⊕	-16.4196
└	-16.4196
♂	-16.4196
ⴷ	-16.4196
ⵙ	-16.4196
ⵣ	-16.4196
ぎ	-16.4196
ず	-16.4196
で	-16.4196
ゼ	-16.4196
丸	-16.4196
也	-16.4196
介	-16.4196
份	-16.4196
依	-16.4196
出	-16.4196
刘	-16.4196
功	-16.4196
卑	-16.4196
后	-16.4196
噺	-16.4196
场	-16.4196
墓	-16.4196
奘	-16.4196
姓	-16.4196
威	-16.4196
孝	-16.4196
室	-16.4196
局	-16.4196
岐	-16.4196
峰	-16.4196
常	-16.4196
広	-16.4196
库	-16.4196
座	-16.4196
弉	-16.4196
律	-16.4196
拳	-16.4196
撒	-16.4196
放	-16.4196
故	-16.4196
料	-16.4196
昌	-16.4196
曲	-16.4196
朴	-16.4196
来	-16.4196
棋	-16.4196
橋	-16.4196
洲	-16.4196
渠	-16.4196
渡	-16.4196
演	-16.4196
漫	-16.4196
爱	-16.4196
版	-16.4196
珠	-16.4196
男	-16.4196
略	-16.4196
盛	-16.4196
祭	-16.4196
禅	-16.4196
禪	-16.4196
等	-16.4196
約	-16.4196
縄	-16.4196
缽	-16.4196
羌	-16.4196
股	-16.4196
般	-16.4196
莫	-16.4196
萬	-16.4196
葛	-16.4196
蒲	-16.4196
藏	-16.4196
議	-16.4196
记	-16.4196
越	-16.4196
輪	-16.4196
遼	-16.4196
郭	-16.4196
醢	-16.4196
鉄	-16.4196
銀	-16.4196
铁	-16.4196
間	-16.4196
雷	-16.4196
霍	-16.4196
革	-16.4196
須	-16.4196
頓	-16.4196
鴨	-16.4196
麗	-16.4196
게	-16.4196
권	-16.4196
말	-16.4196
밀	-16.4196
방	-16.4196
브	-16.4196
삼	-16.4196
엑	-16.4196
준	-16.4196
직	-16.4196
채	-16.4196
특	-16.4196
평	-16.4196
합	-16.4196
형	-16.4196
ɤ	-16.4196
ડ	-16.4196
ಲ	-16.4196
ศ	-16.4196
ᑊ	-16.4196
ដ	-16.4196
ந	-16.4196
က	-16.5863
ञ	-16.5863
ܗ	-16.5863
འ	-16.5863
ჟ	-16.5863
ɜ	-16.5863
ڑ	-16.5863
ܨ	-16.5863
ލ	-16.5863
ޔ	-16.5863
অ	-16.5863
ಬ	-16.5863
ු	-16.5863
ျ	-16.5863
ሪ	-16.5863
ᠯ	-16.5863
ゥ	-16.5863
級	-16.5863
모	-16.5863
중	-16.5863
퍼	-16.5863
ĺ	-16.5863
̥	-16.5863
̪	-16.5863
ѱ	-16.5863
ӑ	-16.5863
١	-16.5863
ٯ	-16.5863
ڶ	-16.5863
ں	-16.5863
۴	-16.5863
ީ	-16.5863
ौ	-16.5863
થ	-16.5863
୍	-16.5863
ள	-16.5863
ಗ	-16.5863
ಡ	-16.5863
ญ	-16.5863
ງ	-16.5863
ེ	-16.5863
ᄏ	-16.5863
እ	-16.5863
ዓ	-16.5863
ይ	-16.5863
ግ	-16.5863
ᐘ	-16.5863
ᐠ	-16.5863
ᒻ	-16.5863
ᵽ	-16.5863
ḉ	-16.5863
ắ	-16.5863
ỉ	-16.5863
ổ	-16.5863
ớ	-16.5863
ự	-16.5863
ἕ	-16.5863
ἶ	-16.5863
ὰ	-16.5863
↨	-16.5863
⇔	-16.5863
∙	-16.5863
∥	-16.5863
≪	-16.5863
█	-16.5863
へ	-16.5863
乐	-16.5863
今	-16.5863
何	-16.5863
军	-16.5863
切	-16.5863
協	-16.5863
单	-16.5863
吴	-16.5863
咄	-16.5863
問	-16.5863
圭	-16.5863
墨	-16.5863
壮	-16.5863
失	-16.5863
奈	-16.5863
宁	-16.5863
宏	-16.5863
実	-16.5863
就	-16.5863
屋	-16.5863
幼	-16.5863
广	-16.5863
庭	-16.5863
弘	-16.5863
张	-16.5863
彌	-16.5863
役	-16.5863
得	-16.5863
性	-16.5863
悟	-16.5863
愚	-16.5863
慶	-16.5863
扎	-16.5863
持	-16.5863
敏	-16.5863
晶	-16.5863
最	-16.5863
柏	-16.5863
查	-16.5863
楚	-16.5863
楽	-16.5863
檀	-16.5863
次	-16.5863
殺	-16.5863
殿	-16.5863
求	-16.5863
温	-16.5863
滿	-16.5863
澤	-16.5863
焉	-16.5863
然	-16.5863
燕	-16.5863
独	-16.5863
猫	-16.5863
獨	-16.5863
玛	-16.5863
珍	-16.5863
現	-16.5863
琉	-16.5863
瓊	-16.5863
界	-16.5863
盧	-16.5863
礼	-16.5863
竹	-16.5863
素	-16.5863
統	-16.5863
綾	-16.5863
级	-16.5863
罗	-16.5863
羽	-16.5863
考	-16.5863
而	-16.5863
艦	-16.5863
茹	-16.5863
蕨	-16.5863
蠕	-16.5863
角	-16.5863
誘	-16.5863
諸	-16.5863
謙	-16.5863
辛	-16.5863
近	-16.5863
遺	-16.5863
鄯	-16.5863
酒	-16.5863
鋼	-16.5863
锡	-16.5863
阳	-16.5863
陵	-16.5863
雪	-16.5863
零	-16.5863
霊	-16.5863
骨	-16.5863
鮓	-16.5863
鶻	-16.5863
근	-16.5863
두	-16.5863
루	-16.5863
림	-16.5863
북	-16.5863
빅	-16.5863
생	-16.5863
식	-16.5863
심	-16.5863
육	-16.5863
으	-16.5863
짓	-16.5863
혁	-16.5863
𐰃	-16.5863
𐰰	-16.5863
ˑ	-16.5863
ӣ	-16.5863
ތ	-16.5863
॒	-16.5863
બ	-16.5863
શ	-16.5863
ు	-16.5863
ಶ	-16.5863
ි	-16.5863
ჰ	-16.5863
𐰀	-16.5863
ɦ	-16.5863
ṋ	-16.5863
អ	-16.5863
ⲙ	-16.5863
ရ	-16.7863
ⵛ	-16.7863
ভ	-16.7863
ɫ	-16.7863
ֱ	-16.7863
ষ	-16.7863
ద	-16.7863
ಪ	-16.7863
ྲ	-16.7863
ᒧ	-16.7863
ἵ	-16.7863
포	-16.7863
ښ	-16.7863
ܲ	-16.7863
ਮ	-16.7863
ਹ	-16.7863
ੰ	-16.7863
ಚ	-16.7863
ප	-16.7863
ྒ	-16.7863
ὺ	-16.7863
準	-16.7863
내	-16.7863
네	-16.7863
달	-16.7863
병	-16.7863
송	-16.7863
절	-16.7863
ƀ	-16.7863
ǖ	-16.7863
ɍ	-16.7863
ʝ	-16.7863
̦	-16.7863
ϸ	-16.7863
ѵ	-16.7863
ҹ	-16.7863
ӡ	-16.7863
ӯ	-16.7863
ԛ	-16.7863
װ	-16.7863
ײ	-16.7863
ٔ	-16.7863
ٰ	-16.7863
ڈ	-16.7863
उ	-16.7863
फ	-16.7863
॑	-16.7863
ટ	-16.7863
ங	-16.7863
ం	-16.7863
జ	-16.7863
య	-16.7863
ಜ	-16.7863
ಹ	-16.7863
ම	-16.7863
ී	-16.7863
ວ	-16.7863
ྗ	-16.7863
ྱ	-16.7863
့	-16.7863
ለ	-16.7863
መ	-16.7863
ቀ	-16.7863
ባ	-16.7863
ተ	-16.7863
ና	-16.7863
ዳ	-16.7863
ፋ	-16.7863
።	-16.7863
ᐤ	-16.7863
ᐧ	-16.7863
ᑑ	-16.7863
ᔑ	-16.7863
ᖁ	-16.7863
ល	-16.7863
ḻ	-16.7863
ḿ	-16.7863
ủ	-16.7863
‛	-16.7863
₮	-16.7863
↦	-16.7863
⇒	-16.7863
∘	-16.7863
∫	-16.7863
∼	-16.7863
─	-16.7863
┌	-16.7863
♠	-16.7863
♫	-16.7863
ⵡ	-16.7863
ぐ	-16.7863
げ	-16.7863
ゆ	-16.7863
ろ	-16.7863
令	-16.7863
以	-16.7863
任	-16.7863
传	-16.7863
侨	-16.7863
俟	-16.7863
俱	-16.7863
倉	-16.7863
刊	-16.7863
列	-16.7863
初	-16.7863
前	-16.7863
努	-16.7863
勃	-16.7863
務	-16.7863
參	-16.7863
右	-16.7863
呂	-16.7863
哲	-16.7863
嘉	-16.7863
噶	-16.7863
坐	-16.7863
坤	-16.7863
坦	-16.7863
堅	-16.7863
夷	-16.7863
奸	-16.7863
如	-16.7863
存	-16.7863
宫	-16.7863
容	-16.7863
寇	-16.7863
封	-16.7863
将	-16.7863
將	-16.7863
尚	-16.7863
尹	-16.7863
屠	-16.7863
屯	-16.7863
岛	-16.7863
岩	-16.7863
左	-16.7863
币	-16.7863
帕	-16.7863
幣	-16.7863
幻	-16.7863
庫	-16.7863
延	-16.7863
弟	-16.7863
忍	-16.7863
恵	-16.7863
懐	-16.7863
承	-16.7863
护	-16.7863
指	-16.7863
振	-16.7863
推	-16.7863
敬	-16.7863
敷	-16.7863
早	-16.7863
昆	-16.7863
曷	-16.7863
杨	-16.7863
柯	-16.7863
桦	-16.7863
條	-16.7863
棠	-16.7863
森	-16.7863
樹	-16.7863
權	-16.7863
欽	-16.7863
死	-16.7863
毗	-16.7863
沁	-16.7863
泥	-16.7863
洪	-16.7863
浩	-16.7863
浪	-16.7863
照	-16.7863
熟	-16.7863
父	-16.7863
甫	-16.7863
盟	-16.7863
眉	-16.7863
眞	-16.7863
砲	-16.7863
磨	-16.7863
祖	-16.7863
穆	-16.7863
竜	-16.7863
納	-16.7863
緑	-16.7863
織	-16.7863
红	-16.7863
维	-16.7863
翼	-16.7863
聯	-16.7863
育	-16.7863
臨	-16.7863
舒	-16.7863
舱	-16.7863
良	-16.7863
苾	-16.7863
茂	-16.7863
董	-16.7863
蓮	-16.7863
蔘	-16.7863
蔣	-16.7863
藩	-16.7863
融	-16.7863
衡	-16.7863
裕	-16.7863
襲	-16.7863
詰	-16.7863
讀	-16.7863
豊	-16.7863
貝	-16.7863
走	-16.7863
週	-16.7863
遠	-16.7863
郁	-16.7863
鄭	-16.7863
錦	-16.7863
钦	-16.7863
钵	-16.7863
閭	-16.7863
陰	-16.7863
順	-16.7863
风	-16.7863
首	-16.7863
體	-16.7863
鬼	-16.7863
黃	-16.7863
간	-16.7863
과	-16.7863
궁	-16.7863
귀	-16.7863
규	-16.7863
길	-16.7863
람	-16.7863
럼	-16.7863
려	-16.7863
린	-16.7863
몰	-16.7863
변	-16.7863
분	-16.7863
손	-16.7863
쉽	-16.7863
온	-16.7863
운	-16.7863
워	-16.7863
좋	-16.7863
즈	-16.7863
체	-16.7863
코	-16.7863
키	-16.7863
탑	-16.7863
파	-16.7863
함	-16.7863
허	-16.7863
후	-16.7863
훈	-16.7863
ҭ	-16.7863
উ	-16.7863
ট	-16.7863
அ	-16.7863
త	-16.7863
ೇ	-16.7863
ི	-16.7863
တ	-16.7863
ᐱ	-16.7863
ᑋ	-16.7863
ច	-16.7863
ញ	-16.7863
̣	-16.7863
ஜ	-16.7863
డ	-16.7863
ස	-16.7863
ẵ	-16.7863
ெ	-16.7863
ԓ	-17.0363
ɖ	-17.0363
ސ	-17.0363
ភ	-17.0363
̘	-17.0363
ప	-17.0363
ះ	-17.0363
ṉ	-17.0363
ʈ	-17.0363
চ	-17.0363
ઠ	-17.0363
ಥ	-17.0363
ದ	-17.0363
ภ	-17.0363
ᓵ	-17.0363
ᕗ	-17.0363
啟	-17.0363
閩	-17.0363
ᶇ	-17.0363
端	-17.0363
露	-17.0363
ċ	-17.0363
ĸ	-17.0363
ŕ	-17.0363
ŗ	-17.0363
ǚ	-17.0363
ʐ	-17.0363
ʦ	-17.0363
ˀ	-17.0363
ˁ	-17.0363
ˉ	-17.0363
ͱ	-17.0363
ϙ	-17.0363
ѧ	-17.0363
ѳ	-17.0363
ҙ	-17.0363
ҵ	-17.0363
ӂ	-17.0363
ӕ	-17.0363
ԁ	-17.0363
ԝ	-17.0363
־	-17.0363
׳	-17.0363
ړ	-17.0363
۷	-17.0363
ܿ	-17.0363
ई	-17.0363
শ	-17.0363
৳	-17.0363
ਨ	-17.0363
ਬ	-17.0363
આ	-17.0363
ચ	-17.0363
૧	-17.0363
૪	-17.0363
ର	-17.0363
ಣ	-17.0363
็	-17.0363
པ	-17.0363
ူ	-17.0363
ሓ	-17.0363
ሱ	-17.0363
ሳ	-17.0363
በ	-17.0363
ቡ	-17.0363
ች	-17.0363
ያ	-17.0363
ደ	-17.0363
ᐹ	-17.0363
ᑖ	-17.0363
ᒋ	-17.0363
ᒼ	-17.0363
ឋ	-17.0363
ថ	-17.0363
ូ	-17.0363
ḇ	-17.0363
ẖ	-17.0363
ụ	-17.0363
ỹ	-17.0363
ἅ	-17.0363
ὴ	-17.0363
‒	-17.0363
↹	-17.0363
∃	-17.0363
≅	-17.0363
⊥	-17.0363
┐	-17.0363
├	-17.0363
ぬ	-17.0363
ふ	-17.0363
ゾ	-17.0363
且	-17.0363
丘	-17.0363
义	-17.0363
乘	-17.0363
亚	-17.0363
亮	-17.0363
仲	-17.0363
伏	-17.0363
住	-17.0363
例	-17.0363
倫	-17.0363
傅	-17.0363
傳	-17.0363
像	-17.0363
允	-17.0363
具	-17.0363
制	-17.0363
勇	-17.0363
午	-17.0363
及	-17.0363
句	-17.0363
启	-17.0363
図	-17.0363
圏	-17.0363
報	-17.0363
塚	-17.0363
壁	-17.0363
壇	-17.0363
婆	-17.0363
守	-17.0363
客	-17.0363
射	-17.0363
尉	-17.0363
峨	-17.0363
崔	-17.0363
嵩	-17.0363
幹	-17.0363
弁	-17.0363
徐	-17.0363
怛	-17.0363
恰	-17.0363
惑	-17.0363
想	-17.0363
意	-17.0363
慕	-17.0363
慧	-17.0363
抗	-17.0363
拔	-17.0363
摘	-17.0363
数	-17.0363
斎	-17.0363
斗	-17.0363
施	-17.0363
旅	-17.0363
时	-17.0363
易	-17.0363
曼	-17.0363
朗	-17.0363
未	-17.0363
枝	-17.0363
柔	-17.0363
桃	-17.0363
案	-17.0363
桓	-17.0363
極	-17.0363
楼	-17.0363
様	-17.0363
樓	-17.0363
標	-17.0363
欢	-17.0363
歡	-17.0363
歲	-17.0363
氣	-17.0363
沈	-17.0363
沮	-17.0363
泽	-17.0363
淳	-17.0363
溫	-17.0363
濤	-17.0363
点	-17.0363
烈	-17.0363
焼	-17.0363
璠	-17.0363
瓦	-17.0363
登	-17.0363
監	-17.0363
硫	-17.0363
碁	-17.0363
祿	-17.0363
禄	-17.0363
秦	-17.0363
程	-17.0363
窟	-17.0363
笠	-17.0363
策	-17.0363
経	-17.0363
結	-17.0363
絵	-17.0363
綱	-17.0363
線	-17.0363
纳	-17.0363
组	-17.0363
耆	-17.0363
聖	-17.0363
背	-17.0363
腹	-17.0363
興	-17.0363
芮	-17.0363
芸	-17.0363
莎	-17.0363
菌	-17.0363
菩	-17.0363
蔡	-17.0363
蕃	-17.0363
藝	-17.0363
號	-17.0363
蛮	-17.0363
装	-17.0363
裏	-17.0363
解	-17.0363
訶	-17.0363
読	-17.0363
論	-17.0363
諾	-17.0363
貞	-17.0363
賢	-17.0363
贝	-17.0363
起	-17.0363
超	-17.0363
身	-17.0363
載	-17.0363
辺	-17.0363
追	-17.0363
速	-17.0363
進	-17.0363
遊	-17.0363
過	-17.0363
邦	-17.0363
郅	-17.0363
郷	-17.0363
釜	-17.0363
鐘	-17.0363
锦	-17.0363
閣	-17.0363
附	-17.0363
际	-17.0363
険	-17.0363
霸	-17.0363
靼	-17.0363
韃	-17.0363
额	-17.0363
飛	-17.0363
魔	-17.0363
魚	-17.0363
麴	-17.0363
默	-17.0363
鼻	-17.0363
ꭶ	-17.0363
급	-17.0363
난	-17.0363
날	-17.0363
년	-17.0363
덕	-17.0363
독	-17.0363
맨	-17.0363
물	-17.0363
뭐	-17.0363
배	-17.0363
베	-17.0363
봐	-17.0363
불	-17.0363
솔	-17.0363
쇼	-17.0363
슬	-17.0363
쌰	-17.0363
역	-17.0363
예	-17.0363
와	-17.0363
익	-17.0363
집	-17.0363
쳐	-17.0363
축	-17.0363
춘	-17.0363
카	-17.0363
케	-17.0363
텔	-17.0363
플	-17.0363
행	-17.0363
	-17.0363
𐰛	-17.0363
𐰭	-17.0363
ܙ	-17.0363
আ	-17.0363
ਦ	-17.0363
એ	-17.0363
ણ	-17.0363
గ	-17.0363
ల	-17.0363
ใ	-17.0363
ኣ	-17.0363
ᑌ	-17.0363
ⴽ	-17.0363
む	-17.0363
勤	-17.0363
결	-17.0363
슈	-17.0363
혼	-17.0363
ɹ	-17.0363
છ	-17.0363
ක	-17.0363
ည	-17.0363
ᕲ	-17.0363
ᖕ	-17.0363
ᖬ	-17.0363
ἷ	-17.0363
ᑰ	-17.0363
క	-17.0363
ঙ	-17.0363
ᠦ	-17.3696
ὼ	-17.3696
အ	-17.3696
ܰ	-17.3696
ठ	-17.3696
బ	-17.3696
స	-17.3696
ಷ	-17.3696
แ	-17.3696
ລ	-17.3696
ჳ	-17.3696
驅	-17.3696
ʙ	-17.3696
ϛ	-17.3696
ټ	-17.3696
ډ	-17.3696
ݢ	-17.3696
ފ	-17.3696
ঁ	-17.3696
ૃ	-17.3696
യ	-17.3696
ฟ	-17.3696
ኢ	-17.3696
ṓ	-17.3696
ẹ	-17.3696
ἠ	-17.3696
ῳ	-17.3696
狂	-17.3696
돌	-17.3696
떠	-17.3696
뮤	-17.3696
E	-17.3696
ŷ	-17.3696
ƞ	-17.3696
ɳ	-17.3696
ʣ	-17.3696
ˆ	-17.3696
̧	-17.3696
̺	-17.3696
ͳ	-17.3696
ͷ	-17.3696
ϡ	-17.3696
ϻ	-17.3696
ѥ	-17.3696
ӓ	-17.3696
ڏ	-17.3696
ڞ	-17.3696
ڨ	-17.3696
ܳ	-17.3696
ए	-17.3696
घ	-17.3696
ङ	-17.3696
ॉ	-17.3696
।	-17.3696
॥	-17.3696
থ	-17.3696
ਤ	-17.3696
ੀ	-17.3696
ઝ	-17.3696
ૉ	-17.3696
૦	-17.3696
૩	-17.3696
૯	-17.3696
ା	-17.3696
ோ	-17.3696
ణ	-17.3696
న	-17.3696
ය	-17.3696
ව	-17.3696
ශ	-17.3696
ํ	-17.3696
ພ	-17.3696
།	-17.3696
ྐ	-17.3696
ྟ	-17.3696
လ	-17.3696
ჲ	-17.3696
ላ	-17.3696
ረ	-17.3696
ሮ	-17.3696
ሰ	-17.3696
ቢ	-17.3696
ኛ	-17.3696
ዊ	-17.3696
ዕ	-17.3696
ዝ	-17.3696
ድ	-17.3696
ጣ	-17.3696
ጽ	-17.3696
ᒌ	-17.3696
ᒑ	-17.3696
ᓃ	-17.3696
ᔅ	-17.3696
ᔮ	-17.3696
ᕙ	-17.3696
ᖚ	-17.3696
ᖫ	-17.3696
ᖽ	-17.3696
ᖿ	-17.3696
ខ	-17.3696
ៀ	-17.3696
ᠥ	-17.3696
ᠰ	-17.3696
ᡥ	-17.3696
ᶄ	-17.3696
ṁ	-17.3696
ẍ	-17.3696
ặ	-17.3696
ề	-17.3696
ừ	-17.3696
ữ	-17.3696
ῷ	-17.3696
―	-17.3696
‪	-17.3696
₫	-17.3696
₴	-17.3696
↓	-17.3696
∉	-17.3696
∝	-17.3696
∠	-17.3696
⊙	-17.3696
★	-17.3696
ざ	-17.3696
そ	-17.3696
づ	-17.3696
ね	-17.3696
ほ	-17.3696
ヶ	-17.3696
为	-17.3696
乎	-17.3696
乱	-17.3696
云	-17.3696
亭	-17.3696
付	-17.3696
伦	-17.3696
佗	-17.3696
你	-17.3696
倖	-17.3696
倭	-17.3696
僚	-17.3696
儀	-17.3696
儉	-17.3696
免	-17.3696
其	-17.3696
冀	-17.3696
农	-17.3696
則	-17.3696
剌	-17.3696
剣	-17.3696
动	-17.3696
包	-17.3696
匡	-17.3696
卡	-17.3696
号	-17.3696
吹	-17.3696
味	-17.3696
商	-17.3696
喬	-17.3696
因	-17.3696
圆	-17.3696
在	-17.3696
坪	-17.3696
垒	-17.3696
境	-17.3696
壤	-17.3696
変	-17.3696
头	-17.3696
奥	-17.3696
好	-17.3696
妮	-17.3696
嬌	-17.3696
孟	-17.3696
宙	-17.3696
宴	-17.3696
導	-17.3696
尺	-17.3696
巢	-17.3696
巨	-17.3696
巩	-17.3696
师	-17.3696
席	-17.3696
帰	-17.3696
帶	-17.3696
店	-17.3696
廷	-17.3696
开	-17.3696
弓	-17.3696
弩	-17.3696
归	-17.3696
录	-17.3696
復	-17.3696
徹	-17.3696
急	-17.3696
怪	-17.3696
恆	-17.3696
恒	-17.3696
息	-17.3696
情	-17.3696
惠	-17.3696
戛	-17.3696
房	-17.3696
拘	-17.3696
招	-17.3696
拜	-17.3696
拠	-17.3696
改	-17.3696
敕	-17.3696
敦	-17.3696
斤	-17.3696
旋	-17.3696
旦	-17.3696
映	-17.3696
晴	-17.3696
暁	-17.3696
服	-17.3696
杖	-17.3696
核	-17.3696
桑	-17.3696
梦	-17.3696
楢	-17.3696
櫻	-17.3696
欧	-17.3696
欲	-17.3696
歸	-17.3696
殊	-17.3696
母	-17.3696
気	-17.3696
決	-17.3696
沟	-17.3696
沼	-17.3696
注	-17.3696
活	-17.3696
浜	-17.3696
深	-17.3696
淵	-17.3696
游	-17.3696
湯	-17.3696
満	-17.3696
潤	-17.3696
烧	-17.3696
热	-17.3696
燒	-17.3696
爺	-17.3696
牛	-17.3696
狐	-17.3696
狼	-17.3696
獣	-17.3696
瑜	-17.3696
瑞	-17.3696
瑪	-17.3696
申	-17.3696
畑	-17.3696
畢	-17.3696
畫	-17.3696
疏	-17.3696
皮	-17.3696
盆	-17.3696
盾	-17.3696
眠	-17.3696
督	-17.3696
瞳	-17.3696
破	-17.3696
碇	-17.3696
祁	-17.3696
祈	-17.3696
禹	-17.3696
種	-17.3696
稲	-17.3696
童	-17.3696
競	-17.3696
糸	-17.3696
紙	-17.3696
終	-17.3696
经	-17.3696
网	-17.3696
羯	-17.3696
翁	-17.3696
習	-17.3696
翟	-17.3696
胤	-17.3696
腐	-17.3696
至	-17.3696
节	-17.3696
苦	-17.3696
莊	-17.3696
菊	-17.3696
菱	-17.3696
虞	-17.3696
街	-17.3696
表	-17.3696
衮	-17.3696
裝	-17.3696
製	-17.3696
要	-17.3696
訪	-17.3696
誠	-17.3696
誰	-17.3696
象	-17.3696
貴	-17.3696
賛	-17.3696
质	-17.3696
贺	-17.3696
赫	-17.3696
跌	-17.3696
跡	-17.3696
輔	-17.3696
轄	-17.3696
辰	-17.3696
迷	-17.3696
逢	-17.3696
逸	-17.3696
運	-17.3696
醋	-17.3696
銃	-17.3696
鏡	-17.3696
鐵	-17.3696
间	-17.3696
闽	-17.3696
防	-17.3696
陆	-17.3696
陈	-17.3696
陶	-17.3696
隋	-17.3696
離	-17.3696
難	-17.3696
非	-17.3696
騰	-17.3696
鬪	-17.3696
魂	-17.3696
麦	-17.3696
麵	-17.3696
點	-17.3696
黠	-17.3696
ꭹ	-17.3696
ꮃ	-17.3696
겠	-17.3696
골	-17.3696
놈	-17.3696
담	-17.3696
든	-17.3696
때	-17.3696
룡	-17.3696
릿	-17.3696
명	-17.3696
몽	-17.3696
발	-17.3696
뱅	-17.3696
버	-17.3696
범	-17.3696
복	-17.3696
션	-17.3696
순	-17.3696
쉬	-17.3696
앙	-17.3696
엘	-17.3696
올	-17.3696
욱	-17.3696
잖	-17.3696
적	-17.3696
짝	-17.3696
침	-17.3696
콘	-17.3696
패	-17.3696
펫	-17.3696
필	-17.3696
향	-17.3696
효	-17.3696
﴾	-17.3696
﴿	-17.3696
️	-17.3696
𐰞	-17.3696
𐰢	-17.3696
ˊ	-17.3696
ḃ	-17.3696
円	-17.3696
살	-17.3696
팔	-17.3696
ȣ	-17.3696
ѹ	-17.3696
ܹ	-17.3696
ޙ	-17.3696
ੱ	-17.3696
இ	-17.3696
ွ	-17.3696
ᔨ	-17.3696
ᖓ	-17.3696
凱	-17.3696
豪	-17.3696
글	-17.3696
악	-17.3696
친	-17.3696
ޮ	-17.3696
ढ	-17.3696
ష	-17.3696
ృ	-17.3696
ಂ	-17.3696
ೊ	-17.3696
ං	-17.3696
់	-17.3696
ই	-17.3696
ণ	-17.3696
ื	-17.3696
ⵃ	-17.3696
ⲉ	-17.3696
ⲛ	-17.3696
ⲧ	-17.3696
္	-17.8696
ᡴ	-17.8696
ේ	-17.8696
ֳ	-17.8696
ܖ	-17.8696
ਗ	-17.8696
ே	-17.8696
హ	-17.8696
ക	-17.8696
ത	-17.8696
ര	-17.8696
വ	-17.8696
്	-17.8696
ො	-17.8696
ึ	-17.8696
ຫ	-17.8696
ཛ	-17.8696
ᒣ	-17.8696
ᠨ	-17.8696
ἥ	-17.8696
ⴼ	-17.8696
ꆈ	-17.8696
ꌠ	-17.8696
͜	-17.8696
ଦ	-17.8696
ନ	-17.8696
ാ	-17.8696
ዮ	-17.8696
ᐳ	-17.8696
ᓅ	-17.8696
ὡ	-17.8696
런	-17.8696
메	-17.8696
빛	-17.8696
쌍	-17.8696
저	-17.8696
토	-17.8696
헬	-17.8696
충	-17.8696
!	-17.8696
;	-17.8696
=	-17.8696
|	-17.8696
ƅ	-17.8696
ǂ	-17.8696
ǿ	-17.8696
ȧ	-17.8696
ɓ	-17.8696
ɧ	-17.8696
ɸ	-17.8696
ɽ	-17.8696
ˇ	-17.8696
˧	-17.8696
̑	-17.8696
̕	-17.8696
̤	-17.8696
͗	-17.8696
Υ	-17.8696
ѝ	-17.8696
ҝ	-17.8696
ҽ	-17.8696
ҿ	-17.8696
ӗ	-17.8696
ӛ	-17.8696
֤	-17.8696
ֺ	-17.8696
ֻ	-17.8696
٧	-17.8696
٨	-17.8696
۞	-17.8696
ۡ	-17.8696
ۼ	-17.8696
ܸ	-17.8696
ݝ	-17.8696
ݣ	-17.8696
ށ	-17.8696
ޖ	-17.8696
ँ	-17.8696
झ	-17.8696
ॐ	-17.8696
६	-17.8696
ড	-17.8696
ਖ	-17.8696
ਘ	-17.8696
ੂ	-17.8696
ઃ	-17.8696
ઈ	-17.8696
ૅ	-17.8696
ૈ	-17.8696
ૌ	-17.8696
କ	-17.8696
ଷ	-17.8696
ସ	-17.8696
ି	-17.8696
ୋ	-17.8696
ஈ	-17.8696
ற	-17.8696
ஸ	-17.8696
ொ	-17.8696
ే	-17.8696
ಟ	-17.8696
ತ	-17.8696
ಫ	-17.8696
ೀ	-17.8696
ം	-17.8696
ള	-17.8696
ി	-17.8696
ග	-17.8696
ජ	-17.8696
ฯ	-17.8696
฿	-17.8696
ດ	-17.8696
ນ	-17.8696
ບ	-17.8696
ະ	-17.8696
ໍ	-17.8696
ཁ	-17.8696
ཐ	-17.8696
ཚ	-17.8696
ྤ	-17.8696
ྫ	-17.8696
ླ	-17.8696
ခ	-17.8696
စ	-17.8696
ဇ	-17.8696
ီ	-17.8696
ံ	-17.8696
ჷ	-17.8696
ህ	-17.8696
ሊ	-17.8696
ሔ	-17.8696
ሞ	-17.8696
ሲ	-17.8696
ቦ	-17.8696
ቲ	-17.8696
ቶ	-17.8696
ኒ	-17.8696
ኦ	-17.8696
ኪ	-17.8696
ዋ	-17.8696
ዘ	-17.8696
ዲ	-17.8696
ጅ	-17.8696
ጊ	-17.8696
ጋ	-17.8696
ጨ	-17.8696
ፈ	-17.8696
፭	-17.8696
፼	-17.8696
ᐎ	-17.8696
ᐸ	-17.8696
ᒐ	-17.8696
ᔫ	-17.8696
ᕈ	-17.8696
ᕿ	-17.8696
ᙵ	-17.8696
ែ	-17.8696
៍	-17.8696
័	-17.8696
ᠳ	-17.8696
ᡟ	-17.8696
ᡠ	-17.8696
ᡩ	-17.8696
ᡳ	-17.8696
ᴀ	-17.8696
ṕ	-17.8696
ṙ	-17.8696
ṳ	-17.8696
ẋ	-17.8696
ở	-17.8696
ὔ	-17.8696
₽	-17.8696
↘	-17.8696
⇌	-17.8696
∴	-17.8696
≫	-17.8696
⌘	-17.8696
○	-17.8696
☭	-17.8696
☼	-17.8696
♔	-17.8696
♙	-17.8696
❗	-17.8696
ⱬ	-17.8696
ⲏ	-17.8696
ⴳ	-17.8696
ⵊ	-17.8696
ⵖ	-17.8696
ⵟ	-17.8696
ⵢ	-17.8696
ぶ	-17.8696
ぷ	-17.8696
ぼ	-17.8696
ヱ	-17.8696
ヲ	-17.8696
ㄥ	-17.8696
与	-17.8696
业	-17.8696
串	-17.8696
乗	-17.8696
买	-17.8696
乾	-17.8696
亂	-17.8696
交	-17.8696
亥	-17.8696
亲	-17.8696
仑	-17.8696
仔	-17.8696
仪	-17.8696
伎	-17.8696
位	-17.8696
佳	-17.8696
來	-17.8696
侍	-17.8696
倍	-17.8696
偶	-17.8696
僑	-17.8696
僕	-17.8696
億	-17.8696
優	-17.8696
儿	-17.8696
充	-17.8696
兒	-17.8696
关	-17.8696
典	-17.8696
兼	-17.8696
冉	-17.8696
再	-17.8696
写	-17.8696
冤	-17.8696
冬	-17.8696
冲	-17.8696
函	-17.8696
刚	-17.8696
判	-17.8696
刹	-17.8696
創	-17.8696
勉	-17.8696
匮	-17.8696
协	-17.8696
卒	-17.8696
卖	-17.8696
卜	-17.8696
卢	-17.8696
卫	-17.8696
印	-17.8696
卷	-17.8696
卿	-17.8696
厚	-17.8696
厦	-17.8696
厨	-17.8696
厩	-17.8696
取	-17.8696
呉	-17.8696
咥	-17.8696
哀	-17.8696
哥	-17.8696
啓	-17.8696
喇	-17.8696
営	-17.8696
嗣	-17.8696
嘗	-17.8696
嘛	-17.8696
噌	-17.8696
嚳	-17.8696
嚴	-17.8696
围	-17.8696
固	-17.8696
圓	-17.8696
坊	-17.8696
垂	-17.8696
垠	-17.8696
執	-17.8696
堡	-17.8696
堤	-17.8696
堯	-17.8696
堰	-17.8696
塞	-17.8696
塩	-17.8696
增	-17.8696
墟	-17.8696
壘	-17.8696
壱	-17.8696
壺	-17.8696
处	-17.8696
夕	-17.8696
妓	-17.8696
妙	-17.8696
姑	-17.8696
姙	-17.8696
姜	-17.8696
娘	-17.8696
季	-17.8696
宅	-17.8696
完	-17.8696
宛	-17.8696
宜	-17.8696
宝	-17.8696
寅	-17.8696
寛	-17.8696
対	-17.8696
尋	-17.8696
尕	-17.8696
尤	-17.8696
屈	-17.8696
属	-17.8696
岷	-17.8696
峪	-17.8696
崇	-17.8696
嵐	-17.8696
嶽	-17.8696
庐	-17.8696
庙	-17.8696
庵	-17.8696
廬	-17.8696
弗	-17.8696
強	-17.8696
强	-17.8696
弼	-17.8696
彩	-17.8696
彬	-17.8696
彭	-17.8696
征	-17.8696
循	-17.8696
微	-17.8696
徽	-17.8696
忘	-17.8696
恐	-17.8696
悦	-17.8696
愿	-17.8696
慈	-17.8696
慰	-17.8696
憶	-17.8696
應	-17.8696
戈	-17.8696
戎	-17.8696
戔	-17.8696
戲	-17.8696
捕	-17.8696
捷	-17.8696
握	-17.8696
播	-17.8696
敎	-17.8696
斜	-17.8696
斬	-17.8696
昇	-17.8696
昊	-17.8696
显	-17.8696
暗	-17.8696
曜	-17.8696
朋	-17.8696
期	-17.8696
朽	-17.8696
杀	-17.8696
权	-17.8696
杉	-17.8696
杏	-17.8696
杜	-17.8696
杯	-17.8696
杰	-17.8696
杵	-17.8696
架	-17.8696
染	-17.8696
柱	-17.8696
査	-17.8696
栄	-17.8696
桂	-17.8696
梵	-17.8696
梶	-17.8696
棒	-17.8696
棺	-17.8696
楓	-17.8696
楞	-17.8696
楠	-17.8696
構	-17.8696
槍	-17.8696
槐	-17.8696
横	-17.8696
橫	-17.8696
檢	-17.8696
步	-17.8696
歩	-17.8696
歳	-17.8696
歷	-17.8696
洙	-17.8696
洱	-17.8696
浅	-17.8696
浮	-17.8696
消	-17.8696
涙	-17.8696
涛	-17.8696
淇	-17.8696
淡	-17.8696
済	-17.8696
渓	-17.8696
溌	-17.8696
溝	-17.8696
溥	-17.8696
滓	-17.8696
滕	-17.8696
满	-17.8696
滨	-17.8696
滩	-17.8696
漠	-17.8696
潜	-17.8696
濟	-17.8696
灘	-17.8696
炎	-17.8696
炒	-17.8696
炮	-17.8696
烤	-17.8696
焰	-17.8696
煌	-17.8696
煥	-17.8696
煮	-17.8696
熙	-17.8696
熾	-17.8696
爭	-17.8696
牟	-17.8696
牧	-17.8696
犬	-17.8696
猿	-17.8696
率	-17.8696
现	-17.8696
玲	-17.8696
玷	-17.8696
珪	-17.8696
班	-17.8696
琦	-17.8696
琳	-17.8696
琴	-17.8696
琼	-17.8696
瑩	-17.8696
璽	-17.8696
瓜	-17.8696
甜	-17.8696
电	-17.8696
発	-17.8696
盖	-17.8696
盤	-17.8696
矩	-17.8696
短	-17.8696
碎	-17.8696
碩	-17.8696
示	-17.8696
祐	-17.8696
祓	-17.8696
祥	-17.8696
禁	-17.8696
禎	-17.8696
禮	-17.8696
禺	-17.8696
禾	-17.8696
穂	-17.8696
穴	-17.8696
站	-17.8696
筆	-17.8696
箭	-17.8696
箱	-17.8696
範	-17.8696
篤	-17.8696
籍	-17.8696
粤	-17.8696
紗	-17.8696
累	-17.8696
細	-17.8696
給	-17.8696
継	-17.8696
緣	-17.8696
结	-17.8696
罘	-17.8696
罪	-17.8696
置	-17.8696
羊	-17.8696
翊	-17.8696
翔	-17.8696
翰	-17.8696
耕	-17.8696
聞	-17.8696
肃	-17.8696
肅	-17.8696
肝	-17.8696
腦	-17.8696
腾	-17.8696
致	-17.8696
與	-17.8696
舊	-17.8696
舎	-17.8696
舞	-17.8696
舟	-17.8696
艤	-17.8696
芭	-17.8696
芳	-17.8696
茜	-17.8696
荒	-17.8696
莱	-17.8696
蒼	-17.8696
蓬	-17.8696
蔚	-17.8696
蕴	-17.8696
薛	-17.8696
藍	-17.8696
藥	-17.8696
虐	-17.8696
處	-17.8696
蛇	-17.8696
蛋	-17.8696
蛯	-17.8696
蝚	-17.8696
血	-17.8696
衍	-17.8696
袁	-17.8696
袋	-17.8696
裔	-17.8696
補	-17.8696
觀	-17.8696
视	-17.8696
計	-17.8696
訓	-17.8696
許	-17.8696
訴	-17.8696
評	-17.8696
詠	-17.8696
詳	-17.8696
誡	-17.8696
説	-17.8696
調	-17.8696
變	-17.8696
论	-17.8696
豚	-17.8696
財	-17.8696
貫	-17.8696
貿	-17.8696
賞	-17.8696
賣	-17.8696
賴	-17.8696
賽	-17.8696
货	-17.8696
贵	-17.8696
赛	-17.8696
赭	-17.8696
軽	-17.8696
輝	-17.8696
輿	-17.8696
轨	-17.8696
轮	-17.8696
辖	-17.8696
農	-17.8696
辽	-17.8696
迁	-17.8696
迅	-17.8696
返	-17.8696
迪	-17.8696
逻	-17.8696
遜	-17.8696
遣	-17.8696
遷	-17.8696
邏	-17.8696
邑	-17.8696
邱	-17.8696
郑	-17.8696
鄉	-17.8696
酌	-17.8696
酷	-17.8696
酸	-17.8696
量	-17.8696
鉢	-17.8696
銘	-17.8696
鎭	-17.8696
长	-17.8696
閥	-17.8696
闇	-17.8696
闕	-17.8696
闞	-17.8696
闾	-17.8696
阔	-17.8696
阙	-17.8696
阮	-17.8696
除	-17.8696
隅	-17.8696
隠	-17.8696
隱	-17.8696
雁	-17.8696
雍	-17.8696
雑	-17.8696
雜	-17.8696
霉	-17.8696
霧	-17.8696
靑	-17.8696
静	-17.8696
靜	-17.8696
鞬	-17.8696
韬	-17.8696
頁	-17.8696
頡	-17.8696
額	-17.8696
類	-17.8696
顯	-17.8696
顶	-17.8696
颉	-17.8696
飞	-17.8696
食	-17.8696
飯	-17.8696
飲	-17.8696
馍	-17.8696
駄	-17.8696
騫	-17.8696
骚	-17.8696
鳥	-17.8696
鳳	-17.8696
鳴	-17.8696
鴉	-17.8696
鶴	-17.8696
鹘	-17.8696
麟	-17.8696
麹	-17.8696
鼎	-17.8696
鼓	-17.8696
ꮳ	-17.8696
갈	-17.8696
감	-17.8696
같	-17.8696
걸	-17.8696
검	-17.8696
곡	-17.8696
관	-17.8696
꼬	-17.8696
꼭	-17.8696
꽃	-17.8696
끼	-17.8696
념	-17.8696
놀	-17.8696
누	-17.8696
눈	-17.8696
느	-17.8696
늘	-17.8696
님	-17.8696
덤	-17.8696
떡	-17.8696
떴	-17.8696
또	-17.8696
랜	-17.8696
렐	-17.8696
롯	-17.8696
르	-17.8696
름	-17.8696
릉	-17.8696
릴	-17.8696
막	-17.8696
맥	-17.8696
맹	-17.8696
밤	-17.8696
번	-17.8696
벌	-17.8696
본	-17.8696
빠	-17.8696
빨	-17.8696
뻐	-17.8696
뿐	-17.8696
쁜	-17.8696
새	-17.8696
설	-17.8696
쇠	-17.8696
숨	-17.8696
싱	-17.8696
싸	-17.8696
앤	-17.8696
약	-17.8696
얌	-17.8696
업	-17.8696
열	-17.8696
옹	-17.8696
완	-17.8696
왜	-17.8696
외	-17.8696
웅	-17.8696
월	-17.8696
읍	-17.8696
응	-17.8696
작	-17.8696
쟁	-17.8696
죠	-17.8696
줘	-17.8696
짜	-17.8696
쩔	-17.8696
찌	-17.8696
참	-17.8696
창	-17.8696
철	-17.8696
초	-17.8696
추	-17.8696
캔	-17.8696
콤	-17.8696
큐	-17.8696
탄	-17.8696
택	-17.8696
텐	-17.8696
톨	-17.8696
통	-17.8696
틸	-17.8696
팝	-17.8696
팬	-17.8696
페	-17.8696
풍	-17.8696
핑	-17.8696
할	-17.8696
햄	-17.8696
황	-17.8696
히	-17.8696
	-17.8696
	-17.8696
	-17.8696
	-17.8696
𐰜	-17.8696
𐰣	-17.8696
𐰴	-17.8696
𐰶	-17.8696
𐰺	-17.8696
𐱁	-17.8696
😀	-17.8696
̱	-17.8696
ҕ	-17.8696
ཆ	-17.8696
ἤ	-17.8696
ㄓ	-17.8696
總	-17.8696
줄	-17.8696
ڙ	-17.8696
ޫ	-17.8696
ખ	-17.8696
ှ	-17.8696
浄	-17.8696
罕	-17.8696
迦	-17.8696
등	-17.8696
랙	-17.8696
밥	-17.8696
ဆ	-17.8696
ޚ	-17.8696
ো	-17.8696
ూ	-17.8696
៊	-17.8696
ណ	-17.8696
ண	-17.8696
ூ	-17.8696
ⲣ	-17.8696
ធ	-17.8696
T	-18.8675
●	-18.8676
N	-18.8677
₺	-18.8678
≈	-18.8679
†	-18.868
ἀ	-18.8681
≥	-18.8682
@	-18.8683
„	-18.8684
→	-18.8685
−	-18.8686
×	-18.8687
€	-18.8688
′	-18.8689
•	-18.869
—	-18.8691
`	-18.8692
.	-18.8693
–	-18.8694
”	-18.8695
ɞ	-18.8696
֗	-18.8696
ޢ	-18.8696
ଚ	-18.8696
ఖ	-18.8696
ట	-18.8696
శ	-18.8696
ై	-18.8696
മ	-18.8696
අ	-18.8696
ධ	-18.8696
ᐙ	-18.8696
ᓛ	-18.8696
ᠤ	-18.8696
ᠬ	-18.8696
ᠭ	-18.8696
ᠮ	-18.8696
ᠷ	-18.8696
ὠ	-18.8696
ⵀ	-18.8696
ꆃ	-18.8696
ꊨ	-18.8696
ꎭ	-18.8696
ꏦ	-18.8696
ꏱ	-18.8696
ǽ	-18.8696
ɢ	-18.8696
̮	-18.8696
ڔ	-18.8696
ਕ	-18.8696
੍	-18.8696
೯	-18.8696
ല	-18.8696
ට	-18.8696
ຼ	-18.8696
ሚ	-18.8696
ካ	-18.8696
የ	-18.8696
ፐ	-18.8696
ᓚ	-18.8696
ᗰ	-18.8696
ῠ	-18.8696
ⴾ	-18.8696
誕	-18.8696
륙	-18.8696
릭	-18.8696
잘	-18.8696
젝	-18.8696
클	-18.8696
탐	-18.8696
ȥ	-18.8696
٬	-18.8696
ሐ	-18.8696
ᐋ	-18.8696
ṻ	-18.8696
咸	-18.8696
杭	-18.8696
멜	-18.8696
&	-18.8696
¥	-18.8696
ƛ	-18.8696
ƹ	-18.8696
ƿ	-18.8696
ǟ	-18.8696
ǵ	-18.8696
ǹ	-18.8696
ȃ	-18.8696
ȓ	-18.8696
ȯ	-18.8696
ȷ	-18.8696
ɘ	-18.8696
ɚ	-18.8696
ɥ	-18.8696
ɭ	-18.8696
ɮ	-18.8696
ɴ	-18.8696
ɶ	-18.8696
ɻ	-18.8696
ʟ	-18.8696
ʤ	-18.8696
ʧ	-18.8696
˨	-18.8696
̅	-18.8696
̋	-18.8696
̍	-18.8696
̟	-18.8696
̴	-18.8696
̻	-18.8696
ͭ	-18.8696
ΰ	-18.8696
ϋ	-18.8696
ϟ	-18.8696
ѩ	-18.8696
ѷ	-18.8696
֫	-18.8696
ֿ	-18.8696
ױ	-18.8696
٣	-18.8696
٥	-18.8696
٩	-18.8696
٫	-18.8696
ٳ	-18.8696
ٽ	-18.8696
ٿ	-18.8696
ڀ	-18.8696
ڌ	-18.8696
ڬ	-18.8696
ڻ	-18.8696
ڼ	-18.8696
ۀ	-18.8696
ۊ	-18.8696
ۜ	-18.8696
ۤ	-18.8696
۸	-18.8696
ۻ	-18.8696
ܤ	-18.8696
݁	-18.8696
ݘ	-18.8696
ޅ	-18.8696
ޏ	-18.8696
ޑ	-18.8696
ޒ	-18.8696
ޓ	-18.8696
ޕ	-18.8696
ޗ	-18.8696
ޘ	-18.8696
ޛ	-18.8696
ޜ	-18.8696
ޝ	-18.8696
ޞ	-18.8696
ޟ	-18.8696
ޠ	-18.8696
ޡ	-18.8696
ޤ	-18.8696
ऋ	-18.8696
ऐ	-18.8696
औ	-18.8696
१	-18.8696
८	-18.8696
ছ	-18.8696
ঠ	-18.8696
ঢ	-18.8696
ূ	-18.8696
ৎ	-18.8696
০	-18.8696
৫	-18.8696
ৱ	-18.8696
৲	-18.8696
ਥ	-18.8696
ਧ	-18.8696
ਲ	-18.8696
ੁ	-18.8696
ੋ	-18.8696
ઇ	-18.8696
ઉ	-18.8696
ઊ	-18.8696
ઋ	-18.8696
ઍ	-18.8696
ઐ	-18.8696
ઑ	-18.8696
ઓ	-18.8696
ઔ	-18.8696
ફ	-18.8696
ભ	-18.8696
ળ	-18.8696
ષ	-18.8696
૫	-18.8696
ଓ	-18.8696
ଡ	-18.8696
ଣ	-18.8696
ବ	-18.8696
ଭ	-18.8696
ମ	-18.8696
ଯ	-18.8696
ଶ	-18.8696
ୁ	-18.8696
ୂ	-18.8696
ୟ	-18.8696
ஆ	-18.8696
ஏ	-18.8696
ஐ	-18.8696
అ	-18.8696
ీ	-18.8696
ో	-18.8696
ಧ	-18.8696
ಭ	-18.8696
ೂ	-18.8696
ೋ	-18.8696
അ	-18.8696
ഴ	-18.8696
േ	-18.8696
ත	-18.8696
ෂ	-18.8696
හ	-18.8696
ළ	-18.8696
ෙ	-18.8696
ฎ	-18.8696
ถ	-18.8696
ฤ	-18.8696
ฬ	-18.8696
๊	-18.8696
ຂ	-18.8696
ຈ	-18.8696
ທ	-18.8696
ມ	-18.8696
ຣ	-18.8696
ສ	-18.8696
ອ	-18.8696
ັ	-18.8696
ຽ	-18.8696
ແ	-18.8696
່	-18.8696
້	-18.8696
ཏ	-18.8696
ཙ	-18.8696
ཤ	-18.8696
ུ	-18.8696
ྭ	-18.8696
ဂ	-18.8696
ဒ	-18.8696
ဖ	-18.8696
ဗ	-18.8696
ဘ	-18.8696
ယ	-18.8696
ဝ	-18.8696
ဲ	-18.8696
ჴ	-18.8696
ჶ	-18.8696
ᄋ	-18.8696
ᅳ	-18.8696
ᅵ	-18.8696
ሥ	-18.8696
ሴ	-18.8696
ሶ	-18.8696
ቂ	-18.8696
ቕ	-18.8696
ቤ	-18.8696
ቱ	-18.8696
ታ	-18.8696
ቴ	-18.8696
ኀ	-18.8696
ኑ	-18.8696
ከ	-18.8696
ኮ	-18.8696
ኰ	-18.8696
ኺ	-18.8696
ወ	-18.8696
ዉ	-18.8696
ው	-18.8696
ዎ	-18.8696
ዑ	-18.8696
ዛ	-18.8696
ዬ	-18.8696
ዶ	-18.8696
ጃ	-18.8696
ጆ	-18.8696
ገ	-18.8696
ጵ	-18.8696
ጹ	-18.8696
ጻ	-18.8696
፩	-18.8696
፬	-18.8696
፴	-18.8696
፹	-18.8696
፺	-18.8696
ᏹ	-18.8696
ᏻ	-18.8696
ᐁ	-18.8696
ᐚ	-18.8696
ᐯ	-18.8696
ᑳ	-18.8696
ᒍ	-18.8696
ᓈ	-18.8696
ᓘ	-18.8696
ᕄ	-18.8696
ᕇ	-18.8696
ᕌ	-18.8696
ᕠ	-18.8696
ᕱ	-18.8696
ᖠ	-18.8696
ᖨ	-18.8696
ᖩ	-18.8696
ᖪ	-18.8696
ᖭ	-18.8696
ᗱ	-18.8696
ឥ	-18.8696
ឿ	-18.8696
ៃ	-18.8696
ោ	-18.8696
ៈ	-18.8696
៉	-18.8696
៛	-18.8696
ᠡ	-18.8696
ᠩ	-18.8696
ᡤ	-18.8696
ᴇ	-18.8696
ᴉ	-18.8696
ᴧ	-18.8696
ᵻ	-18.8696
ḓ	-18.8696
ḕ	-18.8696
ḱ	-18.8696
ẩ	-18.8696
ẻ	-18.8696
ể	-18.8696
ỗ	-18.8696
ợ	-18.8696
ἂ	-18.8696
ἦ	-18.8696
ἧ	-18.8696
ὖ	-18.8696
ὲ	-18.8696
ᾀ	-18.8696
ᾅ	-18.8696
ᾠ	-18.8696
ᾱ	-18.8696
ᾴ	-18.8696
ῃ	-18.8696
ῑ	-18.8696
ῴ	-18.8696
⁃	-18.8696
₡	-18.8696
₣	-18.8696
₦	-18.8696
₪	-18.8696
₱	-18.8696
₲	-18.8696
₵	-18.8696
₸	-18.8696
↠	-18.8696
⇧	-18.8696
∕	-18.8696
≍	-18.8696
≝	-18.8696
⊓	-18.8696
⌒	-18.8696
⌥	-18.8696
◦	-18.8696
☀	-18.8696
☂	-18.8696
☃	-18.8696
☪	-18.8696
☺	-18.8696
♌	-18.8696
♓	-18.8696
♕	-18.8696
♖	-18.8696
♗	-18.8696
♘	-18.8696
♚	-18.8696
♛	-18.8696
♜	-18.8696
♝	-18.8696
♞	-18.8696
♟	-18.8696
♣	-18.8696
♨	-18.8696
⟹	-18.8696
⭐	-18.8696
ⲓ	-18.8696
ⲭ	-18.8696
ⴱ	-18.8696
ⴹ	-18.8696
ⵝ	-18.8696
⸸	-18.8696
ぁ	-18.8696
ぃ	-18.8696
ぅ	-18.8696
ぇ	-18.8696
ご	-18.8696
ぞ	-18.8696
ぴ	-18.8696
べ	-18.8696
ぺ	-18.8696
ゅ	-18.8696
ゐ	-18.8696
ゑ	-18.8696
ヅ	-18.8696
ヰ	-18.8696
ㄊ	-18.8696
ㄋ	-18.8696
ㄐ	-18.8696
ㄢ	-18.8696
ㄤ	-18.8696
ㄨ	-18.8696
ㇰ	-18.8696
丈	-18.8696
丌	-18.8696
丑	-18.8696
丝	-18.8696
个	-18.8696
丰	-18.8696
临	-18.8696
丽	-18.8696
乔	-18.8696
乞	-18.8696
亀	-18.8696
互	-18.8696
亞	-18.8696
亦	-18.8696
亨	-18.8696
亳	-18.8696
仕	-18.8696
们	-18.8696
价	-18.8696
企	-18.8696
伐	-18.8696
休	-18.8696
优	-18.8696
伸	-18.8696
低	-18.8696
佑	-18.8696
余	-18.8696
侑	-18.8696
侖	-18.8696
価	-18.8696
便	-18.8696
俗	-18.8696
俞	-18.8696
俠	-18.8696
俥	-18.8696
俳	-18.8696
個	-18.8696
候	-18.8696
倶	-18.8696
倻	-18.8696
偉	-18.8696
停	-18.8696
傌	-18.8696
僧	-18.8696
儒	-18.8696
儺	-18.8696
兄	-18.8696
兆	-18.8696
兔	-18.8696
兜	-18.8696
入	-18.8696
兴	-18.8696
兹	-18.8696
养	-18.8696
冊	-18.8696
冥	-18.8696
冯	-18.8696
冷	-18.8696
冼	-18.8696
准	-18.8696
凈	-18.8696
凉	-18.8696
凡	-18.8696
凰	-18.8696
凸	-18.8696
刁	-18.8696
刑	-18.8696
则	-18.8696
刺	-18.8696
剑	-18.8696
剱	-18.8696
劃	-18.8696
劍	-18.8696
务	-18.8696
励	-18.8696
劳	-18.8696
勞	-18.8696
勢	-18.8696
勳	-18.8696
勾	-18.8696
匐	-18.8696
匕	-18.8696
匱	-18.8696
医	-18.8696
卐	-18.8696
卯	-18.8696
厂	-18.8696
厳	-18.8696
去	-18.8696
发	-18.8696
叔	-18.8696
变	-18.8696
叡	-18.8696
各	-18.8696
向	-18.8696
吒	-18.8696
吕	-18.8696
吗	-18.8696
含	-18.8696
吸	-18.8696
呈	-18.8696
呑	-18.8696
呪	-18.8696
呴	-18.8696
咋	-18.8696
咫	-18.8696
咲	-18.8696
品	-18.8696
哇	-18.8696
哉	-18.8696
哩	-18.8696
哭	-18.8696
唄	-18.8696
唱	-18.8696
唵	-18.8696
啜	-18.8696
喆	-18.8696
喫	-18.8696
嗚	-18.8696
嘘	-18.8696
嘿	-18.8696
噜	-18.8696
噠	-18.8696
器	-18.8696
囲	-18.8696
圍	-18.8696
圜	-18.8696
圧	-18.8696
圻	-18.8696
均	-18.8696
坎	-18.8696
坝	-18.8696
型	-18.8696
垕	-18.8696
埔	-18.8696
埼	-18.8696
堀	-18.8696
堿	-18.8696
塤	-18.8696
塾	-18.8696
墩	-18.8696
墳	-18.8696
壩	-18.8696
声	-18.8696
壽	-18.8696
夾	-18.8696
奉	-18.8696
奎	-18.8696
奕	-18.8696
奨	-18.8696
奶	-18.8696
妖	-18.8696
妳	-18.8696
妹	-18.8696
姉	-18.8696
姚	-18.8696
姻	-18.8696
娃	-18.8696
娅	-18.8696
娑	-18.8696
娜	-18.8696
婷	-18.8696
媧	-18.8696
媽	-18.8696
孛	-18.8696
孰	-18.8696
实	-18.8696
宪	-18.8696
宰	-18.8696
宾	-18.8696
寄	-18.8696
寒	-18.8696
實	-18.8696
寨	-18.8696
寸	-18.8696
导	-18.8696
對	-18.8696
尙	-18.8696
尝	-18.8696
尧	-18.8696
尭	-18.8696
尸	-18.8696
尻	-18.8696
屁	-18.8696
展	-18.8696
履	-18.8696
屬	-18.8696
岁	-18.8696
岬	-18.8696
岱	-18.8696
岸	-18.8696
峯	-18.8696
峽	-18.8696
崑	-18.8696
崙	-18.8696
嶺	-18.8696
巖	-18.8696
巡	-18.8696
巣	-18.8696
巧	-18.8696
帅	-18.8696
帥	-18.8696
帮	-18.8696
帯	-18.8696
帽	-18.8696
幽	-18.8696
庆	-18.8696
庖	-18.8696
庸	-18.8696
廃	-18.8696
廈	-18.8696
廉	-18.8696
廊	-18.8696
廟	-18.8696
廩	-18.8696
廻	-18.8696
引	-18.8696
弢	-18.8696
弴	-18.8696
当	-18.8696
形	-18.8696
影	-18.8696
彼	-18.8696
待	-18.8696
徒	-18.8696
忙	-18.8696
忽	-18.8696
怡	-18.8696
怨	-18.8696
悉	-18.8696
悠	-18.8696
悲	-18.8696
悼	-18.8696
惣	-18.8696
愍	-18.8696
慊	-18.8696
態	-18.8696
慮	-18.8696
憑	-18.8696
懨	-18.8696
懷	-18.8696
懿	-18.8696
戍	-18.8696
戏	-18.8696
戚	-18.8696
截	-18.8696
戯	-18.8696
扇	-18.8696
打	-18.8696
投	-18.8696
折	-18.8696
抹	-18.8696
拏	-18.8696
拙	-18.8696
拝	-18.8696
括	-18.8696
拭	-18.8696
拾	-18.8696
拿	-18.8696
挙	-18.8696
挡	-18.8696
捍	-18.8696
捧	-18.8696
捺	-18.8696
掃	-18.8696
掌	-18.8696
排	-18.8696
掖	-18.8696
掛	-18.8696
控	-18.8696
揚	-18.8696
揭	-18.8696
揵	-18.8696
搖	-18.8696
搜	-18.8696
搞	-18.8696
摄	-18.8696
摇	-18.8696
撰	-18.8696
撲	-18.8696
擊	-18.8696
擎	-18.8696
攘	-18.8696
攝	-18.8696
收	-18.8696
救	-18.8696
散	-18.8696
整	-18.8696
數	-18.8696
斉	-18.8696
斑	-18.8696
斛	-18.8696
斡	-18.8696
无	-18.8696
旧	-18.8696
旺	-18.8696
昀	-18.8696
昔	-18.8696
昧	-18.8696
昱	-18.8696
昴	-18.8696
昺	-18.8696
晋	-18.8696
晏	-18.8696
晖	-18.8696
晦	-18.8696
晩	-18.8696
景	-18.8696
暈	-18.8696
暎	-18.8696
暦	-18.8696
暨	-18.8696
暴	-18.8696
暾	-18.8696
曆	-18.8696
曌	-18.8696
曙	-18.8696
更	-18.8696
曺	-18.8696
曽	-18.8696
朐	-18.8696
朧	-18.8696
朮	-18.8696
朵	-18.8696
杂	-18.8696
杆	-18.8696
杞	-18.8696
极	-18.8696
枭	-18.8696
枯	-18.8696
柄	-18.8696
柴	-18.8696
树	-18.8696
栖	-18.8696
栗	-18.8696
样	-18.8696
桐	-18.8696
桥	-18.8696
桿	-18.8696
梧	-18.8696
梭	-18.8696
械	-18.8696
检	-18.8696
棍	-18.8696
棘	-18.8696
棲	-18.8696
棵	-18.8696
植	-18.8696
椿	-18.8696
榉	-18.8696
榎	-18.8696
榜	-18.8696
榮	-18.8696
槇	-18.8696
槻	-18.8696
樋	-18.8696
樘	-18.8696
樞	-18.8696
模	-18.8696
樣	-18.8696
権	-18.8696
樸	-18.8696
橘	-18.8696
櫸	-18.8696
欅	-18.8696
欒	-18.8696
欠	-18.8696
欣	-18.8696
歐	-18.8696
歓	-18.8696
段	-18.8696
殷	-18.8696
殻	-18.8696
毀	-18.8696
每	-18.8696
毒	-18.8696
毘	-18.8696
毛	-18.8696
毫	-18.8696
毬	-18.8696
毽	-18.8696
氐	-18.8696
气	-18.8696
汁	-18.8696
汤	-18.8696
汪	-18.8696
汴	-18.8696
汶	-18.8696
汽	-18.8696
沛	-18.8696
没	-18.8696
沧	-18.8696
油	-18.8696
泊	-18.8696
泌	-18.8696
泣	-18.8696
泫	-18.8696
洁	-18.8696
洗	-18.8696
济	-18.8696
涼	-18.8696
淄	-18.8696
淆	-18.8696
淑	-18.8696
淚	-18.8696
淮	-18.8696
混	-18.8696
渤	-18.8696
渾	-18.8696
湊	-18.8696
湘	-18.8696
溪	-18.8696
溯	-18.8696
滋	-18.8696
滑	-18.8696
滚	-18.8696
漁	-18.8696
漕	-18.8696
漬	-18.8696
潔	-18.8696
潘	-18.8696
潟	-18.8696
潽	-18.8696
澄	-18.8696
澜	-18.8696
激	-18.8696
濕	-18.8696
濬	-18.8696
瀚	-18.8696
瀛	-18.8696
瀬	-18.8696
瀷	-18.8696
災	-18.8696
炅	-18.8696
炆	-18.8696
炭	-18.8696
為	-18.8696
炽	-18.8696
烟	-18.8696
煉	-18.8696
煕	-18.8696
煦	-18.8696
熜	-18.8696
熱	-18.8696
燁	-18.8696
燈	-18.8696
燉	-18.8696
燐	-18.8696
燮	-18.8696
牙	-18.8696
牲	-18.8696
牺	-18.8696
犍	-18.8696
犠	-18.8696
犯	-18.8696
狩	-18.8696
狱	-18.8696
狸	-18.8696
猗	-18.8696
猛	-18.8696
猪	-18.8696
献	-18.8696
獄	-18.8696
獎	-18.8696
獯	-18.8696
獻	-18.8696
珊	-18.8696
珑	-18.8696
珥	-18.8696
琰	-18.8696
瑚	-18.8696
瑟	-18.8696
璃	-18.8696
瓶	-18.8696
甕	-18.8696
甚	-18.8696
甸	-18.8696
畖	-18.8696
當	-18.8696
畿	-18.8696
疃	-18.8696
疇	-18.8696
疑	-18.8696
疗	-18.8696
疫	-18.8696
疵	-18.8696
痒	-18.8696
痴	-18.8696
發	-18.8696
皋	-18.8696
皿	-18.8696
盐	-18.8696
眘	-18.8696
眷	-18.8696
眼	-18.8696
着	-18.8696
睦	-18.8696
瞻	-18.8696
矛	-18.8696
砂	-18.8696
硅	-18.8696
硕	-18.8696
碑	-18.8696
碓	-18.8696
碕	-18.8696
碣	-18.8696
碱	-18.8696
碾	-18.8696
磊	-18.8696
磐	-18.8696
礁	-18.8696
祜	-18.8696
禛	-18.8696
禥	-18.8696
禦	-18.8696
禧	-18.8696
私	-18.8696
种	-18.8696
积	-18.8696
称	-18.8696
稚	-18.8696
稱	-18.8696
稽	-18.8696
稿	-18.8696
穌	-18.8696
積	-18.8696
穢	-18.8696
穹	-18.8696
窮	-18.8696
竈	-18.8696
笃	-18.8696
笑	-18.8696
笔	-18.8696
笛	-18.8696
笹	-18.8696
筋	-18.8696
筑	-18.8696
简	-18.8696
箋	-18.8696
箍	-18.8696
箏	-18.8696
箕	-18.8696
管	-18.8696
篇	-18.8696
篠	-18.8696
篭	-18.8696
簡	-18.8696
簪	-18.8696
粉	-18.8696
粛	-18.8696
粟	-18.8696
粮	-18.8696
粵	-18.8696
純	-18.8696
紘	-18.8696
索	-18.8696
紮	-18.8696
紺	-18.8696
絶	-18.8696
綏	-18.8696
綠	-18.8696
綿	-18.8696
緋	-18.8696
緒	-18.8696
編	-18.8696
緯	-18.8696
緹	-18.8696
繁	-18.8696
繭	-18.8696
纥	-18.8696
纪	-18.8696
纲	-18.8696
绛	-18.8696
统	-18.8696
继	-18.8696
绸	-18.8696
罵	-18.8696
羲	-18.8696
羿	-18.8696
翠	-18.8696
耿	-18.8696
联	-18.8696
聲	-18.8696
聿	-18.8696
肆	-18.8696
肉	-18.8696
肌	-18.8696
胜	-18.8696
胞	-18.8696
脇	-18.8696
脈	-18.8696
脑	-18.8696
脫	-18.8696
脳	-18.8696
膝	-18.8696
膳	-18.8696
臥	-18.8696
舆	-18.8696
舉	-18.8696
舍	-18.8696
舜	-18.8696
艷	-18.8696
芙	-18.8696
芥	-18.8696
芦	-18.8696
芬	-18.8696
芹	-18.8696
芽	-18.8696
苗	-18.8696
苹	-18.8696
苻	-18.8696
范	-18.8696
荊	-18.8696
荔	-18.8696
荘	-18.8696
荣	-18.8696
药	-18.8696
菏	-18.8696
菲	-18.8696
营	-18.8696
萩	-18.8696
葅	-18.8696
葆	-18.8696
著	-18.8696
葵	-18.8696
蒋	-18.8696
蓉	-18.8696
蓋	-18.8696
蓝	-18.8696
蕉	-18.8696
蕙	-18.8696
薑	-18.8696
薙	-18.8696
薫	-18.8696
藻	-18.8696
蘊	-18.8696
虛	-18.8696
虫	-18.8696
虹	-18.8696
蚊	-18.8696
蛍	-18.8696
蛟	-18.8696
蛭	-18.8696
蜀	-18.8696
螢	-18.8696
蟠	-18.8696
蟲	-18.8696
蠻	-18.8696
衿	-18.8696
被	-18.8696
裁	-18.8696
褌	-18.8696
褘	-18.8696
襄	-18.8696
襟	-18.8696
覇	-18.8696
観	-18.8696
覺	-18.8696
觉	-18.8696
訊	-18.8696
訾	-18.8696
詝	-18.8696
詞	-18.8696
詢	-18.8696
誤	-18.8696
說	-18.8696
誼	-18.8696
談	-18.8696
諦	-18.8696
諧	-18.8696
諮	-18.8696
諱	-18.8696
謝	-18.8696
謹	-18.8696
謾	-18.8696
識	-18.8696
譚	-18.8696
譜	-18.8696
譯	-18.8696
譲	-18.8696
譽	-18.8696
讃	-18.8696
讓	-18.8696
许	-18.8696
识	-18.8696
说	-18.8696
豐	-18.8696
豫	-18.8696
豹	-18.8696
貓	-18.8696
貨	-18.8696
資	-18.8696
賈	-18.8696
賭	-18.8696
贊	-18.8696
贛	-18.8696
贞	-18.8696
贤	-18.8696
贴	-18.8696
贾	-18.8696
资	-18.8696
赐	-18.8696
赖	-18.8696
趾	-18.8696
跆	-18.8696
距	-18.8696
跨	-18.8696
跪	-18.8696
踊	-18.8696
蹟	-18.8696
蹴	-18.8696
軒	-18.8696
軾	-18.8696
轉	-18.8696
轫	-18.8696
轴	-18.8696
辈	-18.8696
辭	-18.8696
边	-18.8696
辻	-18.8696
过	-18.8696
运	-18.8696
还	-18.8696
进	-18.8696
远	-18.8696
连	-18.8696
迹	-18.8696
送	-18.8696
逊	-18.8696
透	-18.8696
递	-18.8696
逮	-18.8696
遇	-18.8696
適	-18.8696
遭	-18.8696
遮	-18.8696
選	-18.8696
邀	-18.8696
邈	-18.8696
邊	-18.8696
邢	-18.8696
邸	-18.8696
鄧	-18.8696
鄰	-18.8696
配	-18.8696
醍	-18.8696
醐	-18.8696
醸	-18.8696
釈	-18.8696
釵	-18.8696
鈺	-18.8696
鉅	-18.8696
鉉	-18.8696
銅	-18.8696
銑	-18.8696
錄	-18.8696
錛	-18.8696
錨	-18.8696
録	-18.8696
鍋	-18.8696
鍔	-18.8696
鍾	-18.8696
鎌	-18.8696
鑑	-18.8696
鑴	-18.8696
钜	-18.8696
钢	-18.8696
错	-18.8696
閃	-18.8696
閏	-18.8696
闐	-18.8696
關	-18.8696
问	-18.8696
阁	-18.8696
阗	-18.8696
阜	-18.8696
队	-18.8696
降	-18.8696
陛	-18.8696
陣	-18.8696
陪	-18.8696
隈	-18.8696
階	-18.8696
隞	-18.8696
隧	-18.8696
險	-18.8696
隸	-18.8696
雀	-18.8696
雙	-18.8696
雛	-18.8696
霑	-18.8696
霞	-18.8696
靖	-18.8696
鞍	-18.8696
鞏	-18.8696
鞑	-18.8696
鞘	-18.8696
鞠	-18.8696
韩	-18.8696
韶	-18.8696
項	-18.8696
頊	-18.8696
頤	-18.8696
頫	-18.8696
頼	-18.8696
顏	-18.8696
顒	-18.8696
顕	-18.8696
项	-18.8696
领	-18.8696
频	-18.8696
飾	-18.8696
餓	-18.8696
饢	-18.8696
饨	-18.8696
饮	-18.8696
馄	-18.8696
馆	-18.8696
馕	-18.8696
馨	-18.8696
駿	-18.8696
騨	-18.8696
驗	-18.8696
验	-18.8696
鬱	-18.8696
鬲	-18.8696
鬻	-18.8696
魄	-18.8696
鯤	-18.8696
鯰	-18.8696
鱀	-18.8696
鲜	-18.8696
鳄	-18.8696
鳩	-18.8696
鵬	-18.8696
鶏	-18.8696
鶚	-18.8696
鶯	-18.8696
鷄	-18.8696
鷹	-18.8696
鹰	-18.8696
麥	-18.8696
黎	-18.8696
黙	-18.8696
鼠	-18.8696
鼴	-18.8696
齋	-18.8696
齡	-18.8696
龄	-18.8696
龜	-18.8696
ꅉ	-18.8696
ꍏ	-18.8696
ꙑ	-18.8696
ꜣ	-18.8696
ꟼ	-18.8696
ꭰ	-18.8696
ꭳ	-18.8696
ꭸ	-18.8696
ꮀ	-18.8696
ꮉ	-18.8696
ꮒ	-18.8696
ꮕ	-18.8696
ꮝ	-18.8696
ꮟ	-18.8696
ꮵ	-18.8696
ꮿ	-18.8696
각	-18.8696
갑	-18.8696
객	-18.8696
걷	-18.8696
겨	-18.8696
곁	-18.8696
곤	-18.8696
곳	-18.8696
괴	-18.8696
극	-18.8696
까	-18.8696
깨	-18.8696
꼼	-18.8696
꽐	-18.8696
꿈	-18.8696
꿍	-18.8696
끔	-18.8696
낙	-18.8696
낮	-18.8696
낯	-18.8696
냉	-18.8696
냥	-18.8696
넌	-18.8696
널	-18.8696
녕	-18.8696
논	-18.8696
뉴	-18.8696
늑	-18.8696
닝	-18.8696
닥	-18.8696
댄	-18.8696
던	-18.8696
덴	-18.8696
된	-18.8696
둑	-18.8696
둘	-18.8696
둥	-18.8696
듀	-18.8696
땀	-18.8696
란	-18.8696
랍	-18.8696
랩	-18.8696
랭	-18.8696
렁	-18.8696
렌	-18.8696
력	-18.8696
련	-18.8696
례	-18.8696
록	-18.8696
류	-18.8696
른	-18.8696
를	-18.8696
맘	-18.8696
망	-18.8696
머	-18.8696
멈	-18.8696
며	-18.8696
목	-18.8696
몬	-18.8696
몸	-18.8696
못	-18.8696
뮌	-18.8696
믿	-18.8696
밉	-18.8696
밴	-18.8696
벼	-18.8696
볼	-18.8696
봄	-18.8696
붉	-18.8696
붐	-18.8696
븐	-18.8696
빔	-18.8696
빗	-18.8696
빼	-18.8696
삭	-18.8696
색	-18.8696
샤	-18.8696
샵	-18.8696
섬	-18.8696
섭	-18.8696
셨	-18.8696
속	-18.8696
솜	-18.8696
숙	-18.8696
술	-18.8696
숭	-18.8696
쉴	-18.8696
슨	-18.8696
습	-18.8696
실	-18.8696
싶	-18.8696
싼	-18.8696
쏘	-18.8696
쓴	-18.8696
알	-18.8696
암	-18.8696
압	-18.8696
앨	-18.8696
억	-18.8696
언	-18.8696
얼	-18.8696
없	-18.8696
엠	-18.8696
엽	-18.8696
옆	-18.8696
옥	-18.8696
옷	-18.8696
웃	-18.8696
웹	-18.8696
윙	-18.8696
융	-18.8696
입	-18.8696
있	-18.8696
잉	-18.8696
잎	-18.8696
잔	-18.8696
잠	-18.8696
젤	-18.8696
쥬	-18.8696
질	-18.8696
쯔	-18.8696
쯤	-18.8696
첨	-18.8696
첩	-18.8696
첫	-18.8696
첸	-18.8696
총	-18.8696
춰	-18.8696
칙	-18.8696
커	-18.8696
컬	-18.8696
컴	-18.8696
쿨	-18.8696
큰	-18.8696
큼	-18.8696
킥	-18.8696
킹	-18.8696
톤	-18.8696
톱	-18.8696
툰	-18.8696
틀	-18.8696
틋	-18.8696
틴	-18.8696
판	-18.8696
팩	-18.8696
펜	-18.8696
폭	-18.8696
폴	-18.8696
표	-18.8696
픈	-18.8696
항	-18.8696
헌	-18.8696
험	-18.8696
확	-18.8696
획	-18.8696
훗	-18.8696
휘	-18.8696
휴	-18.8696
흑	-18.8696
	-18.8696
	-18.8696
	-18.8696
	-18.8696
	-18.8696
	-18.8696
︠	-18.8696
︡	-18.8696
𐎀	-18.8696
𐎗	-18.8696
𐎘	-18.8696
𐎚	-18.8696
𐎠	-18.8696
𐎢	-18.8696
𐎭	-18.8696
𐎹	-18.8696
𐎺	-18.8696
𐎼	-18.8696
𐏁	-18.8696
𐰆	-18.8696
𐰉	-18.8696
𐰚	-18.8696
𐰲	-18.8696
𐰸	-18.8696
𐱃	-18.8696
𒀭	-18.8696
ȳ	-18.8696
ẏ	-18.8696
ᾆ	-18.8696
ῤ	-18.8696
总	-18.8696
探	-18.8696
枕	-18.8696
淨	-18.8696
馮	-18.8696
곽	-18.8696
ѫ	-18.8696
ڪ	-18.8696
ও	-18.8696
ਭ	-18.8696
ె	-18.8696
ྔ	-18.8696
ᐢ	-18.8696
ᑮ	-18.8696
ⵗ	-18.8696
労	-18.8696
感	-18.8696
釋	-18.8696
농	-18.8696
ϯ	-18.8696
எ	-18.8696
ஷ	-18.8696
භ	-18.8696
ᖌ	-18.8696
“	-18.8696
ⲕ	-18.8696
